#ifdef __has_attribute
#define HAVE_ATTRIBUTE(x) __has_attribute(x)
#else
#define HAVE_ATTRIBUTE(x) 0
#endif
#if HAVE_ATTRIBUTE(aligned) || (defined(__GNUC__) && !defined(__clang__))
#define DATA_ALIGN_ATTRIBUTE __attribute__((aligned(4)))
#else
#define DATA_ALIGN_ATTRIBUTE
#endif

unsigned char _content_drive_MyDrive_projects_weather_2023_05_15_16_19_12_model_SeparableDilatedConv1D_tflite[] = {
  0x20, 0x00, 0x00, 0x00, 0x54, 0x46, 0x4c, 0x33, 0x00, 0x00, 0x00, 0x00,
  0x14, 0x00, 0x20, 0x00, 0x1c, 0x00, 0x18, 0x00, 0x14, 0x00, 0x10, 0x00,
  0x0c, 0x00, 0x00, 0x00, 0x08, 0x00, 0x04, 0x00, 0x14, 0x00, 0x00, 0x00,
  0x1c, 0x00, 0x00, 0x00, 0x9c, 0x00, 0x00, 0x00, 0xf4, 0x00, 0x00, 0x00,
  0xe0, 0x35, 0x00, 0x00, 0xf0, 0x35, 0x00, 0x00, 0xa0, 0x7c, 0x00, 0x00,
  0x03, 0x00, 0x00, 0x00, 0x01, 0x00, 0x00, 0x00, 0x04, 0x00, 0x00, 0x00,
  0xaa, 0xc3, 0xff, 0xff, 0x0c, 0x00, 0x00, 0x00, 0x1c, 0x00, 0x00, 0x00,
  0x54, 0x00, 0x00, 0x00, 0x0f, 0x00, 0x00, 0x00, 0x73, 0x65, 0x72, 0x76,
  0x69, 0x6e, 0x67, 0x5f, 0x64, 0x65, 0x66, 0x61, 0x75, 0x6c, 0x74, 0x00,
  0x02, 0x00, 0x00, 0x00, 0x20, 0x00, 0x00, 0x00, 0x04, 0x00, 0x00, 0x00,
  0x84, 0xff, 0xff, 0xff, 0x3f, 0x00, 0x00, 0x00, 0x04, 0x00, 0x00, 0x00,
  0x04, 0x00, 0x00, 0x00, 0x74, 0x79, 0x70, 0x65, 0x00, 0x00, 0x00, 0x00,
  0x9c, 0xff, 0xff, 0xff, 0x3d, 0x00, 0x00, 0x00, 0x04, 0x00, 0x00, 0x00,
  0x06, 0x00, 0x00, 0x00, 0x70, 0x72, 0x65, 0x63, 0x69, 0x70, 0x00, 0x00,
  0x01, 0x00, 0x00, 0x00, 0x04, 0x00, 0x00, 0x00, 0xba, 0xc9, 0xff, 0xff,
  0x04, 0x00, 0x00, 0x00, 0x07, 0x00, 0x00, 0x00, 0x69, 0x6e, 0x70, 0x75,
  0x74, 0x5f, 0x31, 0x00, 0x02, 0x00, 0x00, 0x00, 0x34, 0x00, 0x00, 0x00,
  0x04, 0x00, 0x00, 0x00, 0xdc, 0xff, 0xff, 0xff, 0x42, 0x00, 0x00, 0x00,
  0x04, 0x00, 0x00, 0x00, 0x13, 0x00, 0x00, 0x00, 0x43, 0x4f, 0x4e, 0x56,
  0x45, 0x52, 0x53, 0x49, 0x4f, 0x4e, 0x5f, 0x4d, 0x45, 0x54, 0x41, 0x44,
  0x41, 0x54, 0x41, 0x00, 0x08, 0x00, 0x0c, 0x00, 0x08, 0x00, 0x04, 0x00,
  0x08, 0x00, 0x00, 0x00, 0x41, 0x00, 0x00, 0x00, 0x04, 0x00, 0x00, 0x00,
  0x13, 0x00, 0x00, 0x00, 0x6d, 0x69, 0x6e, 0x5f, 0x72, 0x75, 0x6e, 0x74,
  0x69, 0x6d, 0x65, 0x5f, 0x76, 0x65, 0x72, 0x73, 0x69, 0x6f, 0x6e, 0x00,
  0x43, 0x00, 0x00, 0x00, 0xe8, 0x34, 0x00, 0x00, 0xe0, 0x34, 0x00, 0x00,
  0xcc, 0x34, 0x00, 0x00, 0xb4, 0x34, 0x00, 0x00, 0x94, 0x34, 0x00, 0x00,
  0x74, 0x34, 0x00, 0x00, 0x58, 0x34, 0x00, 0x00, 0x38, 0x34, 0x00, 0x00,
  0x1c, 0x34, 0x00, 0x00, 0x00, 0x34, 0x00, 0x00, 0xe8, 0x33, 0x00, 0x00,
  0xc8, 0x33, 0x00, 0x00, 0xb8, 0x1b, 0x00, 0x00, 0xa4, 0x1b, 0x00, 0x00,
  0x94, 0x15, 0x00, 0x00, 0x84, 0x14, 0x00, 0x00, 0x74, 0x0c, 0x00, 0x00,
  0x04, 0x0c, 0x00, 0x00, 0x74, 0x0b, 0x00, 0x00, 0x64, 0x07, 0x00, 0x00,
  0xd4, 0x06, 0x00, 0x00, 0xcc, 0x06, 0x00, 0x00, 0x5c, 0x06, 0x00, 0x00,
  0xcc, 0x05, 0x00, 0x00, 0xbc, 0x03, 0x00, 0x00, 0x6c, 0x03, 0x00, 0x00,
  0x3c, 0x03, 0x00, 0x00, 0xec, 0x02, 0x00, 0x00, 0x5c, 0x02, 0x00, 0x00,
  0x2c, 0x02, 0x00, 0x00, 0x0c, 0x02, 0x00, 0x00, 0xdc, 0x01, 0x00, 0x00,
  0xb4, 0x01, 0x00, 0x00, 0x98, 0x01, 0x00, 0x00, 0x7c, 0x01, 0x00, 0x00,
  0x74, 0x01, 0x00, 0x00, 0x6c, 0x01, 0x00, 0x00, 0x64, 0x01, 0x00, 0x00,
  0x5c, 0x01, 0x00, 0x00, 0x54, 0x01, 0x00, 0x00, 0x4c, 0x01, 0x00, 0x00,
  0x44, 0x01, 0x00, 0x00, 0x3c, 0x01, 0x00, 0x00, 0x34, 0x01, 0x00, 0x00,
  0x2c, 0x01, 0x00, 0x00, 0x24, 0x01, 0x00, 0x00, 0x1c, 0x01, 0x00, 0x00,
  0x14, 0x01, 0x00, 0x00, 0x0c, 0x01, 0x00, 0x00, 0x04, 0x01, 0x00, 0x00,
  0xfc, 0x00, 0x00, 0x00, 0xf4, 0x00, 0x00, 0x00, 0xec, 0x00, 0x00, 0x00,
  0xe4, 0x00, 0x00, 0x00, 0xdc, 0x00, 0x00, 0x00, 0xd4, 0x00, 0x00, 0x00,
  0xcc, 0x00, 0x00, 0x00, 0xc4, 0x00, 0x00, 0x00, 0xbc, 0x00, 0x00, 0x00,
  0xb4, 0x00, 0x00, 0x00, 0xac, 0x00, 0x00, 0x00, 0xa4, 0x00, 0x00, 0x00,
  0x9c, 0x00, 0x00, 0x00, 0x94, 0x00, 0x00, 0x00, 0x8c, 0x00, 0x00, 0x00,
  0x6c, 0x00, 0x00, 0x00, 0x04, 0x00, 0x00, 0x00, 0x3a, 0xcb, 0xff, 0xff,
  0x04, 0x00, 0x00, 0x00, 0x58, 0x00, 0x00, 0x00, 0x0c, 0x00, 0x00, 0x00,
  0x08, 0x00, 0x0e, 0x00, 0x08, 0x00, 0x04, 0x00, 0x08, 0x00, 0x00, 0x00,
  0x10, 0x00, 0x00, 0x00, 0x28, 0x00, 0x00, 0x00, 0x00, 0x00, 0x06, 0x00,
  0x08, 0x00, 0x04, 0x00, 0x06, 0x00, 0x00, 0x00, 0x04, 0x00, 0x00, 0x00,
  0x01, 0x00, 0x00, 0x00, 0xeb, 0x03, 0x00, 0x00, 0x00, 0x00, 0x0a, 0x00,
  0x10, 0x00, 0x0c, 0x00, 0x08, 0x00, 0x04, 0x00, 0x0a, 0x00, 0x00, 0x00,
  0x02, 0x00, 0x00, 0x00, 0x02, 0x00, 0x00, 0x00, 0x04, 0x00, 0x00, 0x00,
  0x06, 0x00, 0x00, 0x00, 0x32, 0x2e, 0x31, 0x32, 0x2e, 0x30, 0x00, 0x00,
  0x9e, 0xcb, 0xff, 0xff, 0x04, 0x00, 0x00, 0x00, 0x10, 0x00, 0x00, 0x00,
  0x31, 0x2e, 0x31, 0x34, 0x2e, 0x30, 0x00, 0x00, 0x00, 0x00, 0x00, 0x00,
  0x00, 0x00, 0x00, 0x00, 0xbc, 0x86, 0xff, 0xff, 0xc0, 0x86, 0xff, 0xff,
  0xc4, 0x86, 0xff, 0xff, 0xc8, 0x86, 0xff, 0xff, 0xcc, 0x86, 0xff, 0xff,
  0xd0, 0x86, 0xff, 0xff, 0xd4, 0x86, 0xff, 0xff, 0xd8, 0x86, 0xff, 0xff,
  0xdc, 0x86, 0xff, 0xff, 0xe0, 0x86, 0xff, 0xff, 0xe4, 0x86, 0xff, 0xff,
  0xe8, 0x86, 0xff, 0xff, 0xec, 0x86, 0xff, 0xff, 0xf0, 0x86, 0xff, 0xff,
  0xf4, 0x86, 0xff, 0xff, 0xf8, 0x86, 0xff, 0xff, 0xfc, 0x86, 0xff, 0xff,
  0x00, 0x87, 0xff, 0xff, 0x04, 0x87, 0xff, 0xff, 0x08, 0x87, 0xff, 0xff,
  0x0c, 0x87, 0xff, 0xff, 0x10, 0x87, 0xff, 0xff, 0x14, 0x87, 0xff, 0xff,
  0x18, 0x87, 0xff, 0xff, 0x1c, 0x87, 0xff, 0xff, 0x20, 0x87, 0xff, 0xff,
  0x24, 0x87, 0xff, 0xff, 0x28, 0x87, 0xff, 0xff, 0x2c, 0x87, 0xff, 0xff,
  0x30, 0x87, 0xff, 0xff, 0x32, 0xcc, 0xff, 0xff, 0x04, 0x00, 0x00, 0x00,
  0x09, 0x00, 0x00, 0x00, 0xe9, 0x57, 0x65, 0x81, 0xce, 0x8b, 0xa6, 0x7f,
  0x81, 0x00, 0x00, 0x00, 0x4a, 0xcc, 0xff, 0xff, 0x04, 0x00, 0x00, 0x00,
  0x0c, 0x00, 0x00, 0x00, 0x00, 0x00, 0x00, 0x00, 0x00, 0x00, 0x00, 0x00,
  0x00, 0x00, 0x00, 0x00, 0x62, 0xcc, 0xff, 0xff, 0x04, 0x00, 0x00, 0x00,
  0x18, 0x00, 0x00, 0x00, 0xf4, 0x7f, 0x53, 0xbf, 0x81, 0xa7, 0x2e, 0x9a,
  0x81, 0x69, 0xb4, 0x81, 0x93, 0x7f, 0xc1, 0x23, 0x7f, 0x28, 0x3d, 0x7f,
  0xf9, 0x81, 0xb8, 0xf4, 0x86, 0xcc, 0xff, 0xff, 0x04, 0x00, 0x00, 0x00,
  0x20, 0x00, 0x00, 0x00, 0x1d, 0xfd, 0xff, 0xff, 0xa2, 0x03, 0x00, 0x00,
  0x68, 0x06, 0x00, 0x00, 0x07, 0x0d, 0x00, 0x00, 0x12, 0xeb, 0xff, 0xff,
  0xf8, 0x05, 0x00, 0x00, 0x36, 0x0f, 0x00, 0x00, 0x52, 0xff, 0xff, 0xff,
  0xb2, 0xcc, 0xff, 0xff, 0x04, 0x00, 0x00, 0x00, 0x10, 0x00, 0x00, 0x00,
  0x81, 0x7f, 0x81, 0x7f, 0x81, 0xc6, 0x81, 0x81, 0x16, 0xfc, 0xee, 0x49,
  0x91, 0x81, 0x75, 0xc7, 0xce, 0xcc, 0xff, 0xff, 0x04, 0x00, 0x00, 0x00,
  0x20, 0x00, 0x00, 0x00, 0x00, 0x00, 0x00, 0x00, 0x00, 0x00, 0x00, 0x00,
  0x00, 0x00, 0x00, 0x00, 0x00, 0x00, 0x00, 0x00, 0x00, 0x00, 0x00, 0x00,
  0x00, 0x00, 0x00, 0x00, 0x00, 0x00, 0x00, 0x00, 0x00, 0x00, 0x00, 0x00,
  0xfa, 0xcc, 0xff, 0xff, 0x04, 0x00, 0x00, 0x00, 0x80, 0x00, 0x00, 0x00,
  0xca, 0xb2, 0xd6, 0x7e, 0x97, 0xb9, 0x81, 0x38, 0xf8, 0xf9, 0x61, 0x81,
  0xb8, 0xb4, 0x07, 0xe3, 0xf5, 0x03, 0x2f, 0x81, 0xeb, 0xbd, 0xf9, 0xfc,
  0xa3, 0xad, 0x02, 0x6a, 0x14, 0x3e, 0xbf, 0x7f, 0x32, 0x7f, 0xdd, 0x26,
  0xcd, 0x63, 0x18, 0xa4, 0x10, 0xad, 0x40, 0xc4, 0x52, 0x81, 0xb7, 0x55,
  0x86, 0xa7, 0x06, 0x0e, 0xe7, 0x89, 0xc1, 0x7f, 0x81, 0xbc, 0x1c, 0xe9,
  0xc8, 0x0e, 0xc4, 0xe5, 0xb7, 0x11, 0x13, 0x32, 0x52, 0x7f, 0x31, 0x00,
  0xa9, 0xe4, 0x14, 0x81, 0xd6, 0x2b, 0x16, 0xc7, 0xf9, 0x53, 0xfd, 0xca,
  0xb7, 0x23, 0xbb, 0x81, 0xec, 0x32, 0x7f, 0xe1, 0x10, 0x42, 0x5b, 0xd2,
  0xcb, 0xf3, 0x26, 0x81, 0xf2, 0xd5, 0x09, 0x22, 0x1b, 0x81, 0x2e, 0x39,
  0x5c, 0xaf, 0x6b, 0x50, 0x7f, 0x27, 0x0c, 0xf2, 0x2d, 0x56, 0xf0, 0xf9,
  0xab, 0x81, 0x48, 0xa1, 0xe2, 0xd5, 0xd3, 0x60, 0x86, 0xcd, 0xff, 0xff,
  0x04, 0x00, 0x00, 0x00, 0x40, 0x00, 0x00, 0x00, 0x2c, 0xf3, 0xff, 0xff,
  0x77, 0x16, 0x00, 0x00, 0xd1, 0x05, 0x00, 0x00, 0x42, 0x05, 0x00, 0x00,
  0x22, 0xfe, 0xff, 0xff, 0xc8, 0x01, 0x00, 0x00, 0xc0, 0xfc, 0xff, 0xff,
  0xa0, 0xff, 0xff, 0xff, 0x96, 0xf6, 0xff, 0xff, 0xc6, 0xfc, 0xff, 0xff,
  0xe7, 0x00, 0x00, 0x00, 0xfe, 0xf9, 0xff, 0xff, 0x8f, 0xff, 0xff, 0xff,
  0x06, 0xf6, 0xff, 0xff, 0xe2, 0x01, 0x00, 0x00, 0xe1, 0xfc, 0xff, 0xff,
  0xd2, 0xcd, 0xff, 0xff, 0x04, 0x00, 0x00, 0x00, 0x20, 0x00, 0x00, 0x00,
  0x7f, 0x7c, 0x1d, 0x21, 0xa2, 0x8f, 0x7f, 0x7f, 0x08, 0x12, 0x5b, 0xfa,
  0x7f, 0x7f, 0x81, 0x6d, 0x51, 0x81, 0x81, 0x7f, 0x81, 0x7f, 0x6d, 0x9a,
  0x81, 0x7f, 0x7f, 0x81, 0x57, 0x51, 0xe5, 0x7f, 0xfe, 0xcd, 0xff, 0xff,
  0x04, 0x00, 0x00, 0x00, 0x40, 0x00, 0x00, 0x00, 0x00, 0x00, 0x00, 0x00,
  0x00, 0x00, 0x00, 0x00, 0x00, 0x00, 0x00, 0x00, 0x00, 0x00, 0x00, 0x00,
  0x00, 0x00, 0x00, 0x00, 0x00, 0x00, 0x00, 0x00, 0x00, 0x00, 0x00, 0x00,
  0x00, 0x00, 0x00, 0x00, 0x00, 0x00, 0x00, 0x00, 0x00, 0x00, 0x00, 0x00,
  0x00, 0x00, 0x00, 0x00, 0x00, 0x00, 0x00, 0x00, 0x00, 0x00, 0x00, 0x00,
  0x00, 0x00, 0x00, 0x00, 0x00, 0x00, 0x00, 0x00, 0x00, 0x00, 0x00, 0x00,
  0x4a, 0xce, 0xff, 0xff, 0x04, 0x00, 0x00, 0x00, 0x00, 0x02, 0x00, 0x00,
  0x18, 0x1f, 0xf8, 0x0d, 0x06, 0xf4, 0x15, 0xd7, 0xf4, 0xcc, 0xf8, 0x81,
  0xea, 0xe7, 0x94, 0x13, 0x24, 0x96, 0xd5, 0x30, 0x16, 0x08, 0x38, 0xdf,
  0xa2, 0x09, 0xd5, 0x81, 0xe8, 0xd5, 0x8a, 0x04, 0x1d, 0xe3, 0xc1, 0x19,
  0x12, 0x37, 0x30, 0xda, 0xca, 0xf6, 0xff, 0xbc, 0xc2, 0xbb, 0x81, 0xea,
  0xbc, 0x71, 0x2c, 0x9b, 0x50, 0xb0, 0xad, 0xe6, 0x06, 0x52, 0x87, 0xd2,
  0xbc, 0x7f, 0xca, 0xc8, 0x01, 0xfa, 0xfa, 0xf5, 0xf3, 0x0c, 0xfc, 0x2e,
  0xf3, 0xf4, 0xfe, 0xd7, 0x07, 0xeb, 0x7f, 0x01, 0xe1, 0xd7, 0xe7, 0xf8,
  0x10, 0x06, 0xf0, 0xf8, 0x81, 0xe3, 0xf9, 0xf4, 0x4c, 0x42, 0xab, 0x51,
  0x22, 0x35, 0xe5, 0x66, 0xf6, 0x0f, 0x0a, 0x05, 0x37, 0xe7, 0xe1, 0xce,
  0x81, 0xe0, 0x14, 0xc7, 0x39, 0xb3, 0xdb, 0xc2, 0x07, 0x1c, 0xf2, 0x54,
  0xf4, 0xb8, 0x27, 0xa5, 0x81, 0xfe, 0xcc, 0xa8, 0x00, 0x5a, 0x27, 0x19,
  0xeb, 0x0c, 0x0b, 0x23, 0x61, 0xb0, 0x22, 0x42, 0xda, 0x36, 0xea, 0x81,
  0xfa, 0x00, 0xf9, 0x0d, 0x7f, 0x00, 0x0f, 0xf9, 0xf4, 0xf4, 0xc2, 0xfe,
  0x26, 0x08, 0xef, 0xf1, 0x32, 0x2e, 0xff, 0x1f, 0x14, 0xff, 0x5f, 0x49,
  0x81, 0xfa, 0xd2, 0xdb, 0x72, 0xf2, 0x1f, 0x4c, 0xf7, 0x3a, 0xfa, 0x02,
  0xe5, 0xe1, 0xf9, 0x7f, 0xe6, 0xc2, 0xf1, 0x1c, 0xf4, 0xad, 0xb0, 0xe9,
  0xde, 0xe9, 0x0e, 0xea, 0xe8, 0x1e, 0x93, 0x48, 0xc5, 0x26, 0x40, 0x81,
  0x47, 0xd0, 0x1a, 0x31, 0x21, 0xfc, 0xdd, 0x81, 0x10, 0xfa, 0xcb, 0x08,
  0x0d, 0x3c, 0x14, 0xb5, 0xfe, 0x5a, 0xd2, 0xfc, 0xfa, 0xfb, 0x67, 0x39,
  0xb0, 0x14, 0x38, 0x4c, 0x1e, 0xd0, 0xfa, 0x7f, 0xb5, 0x7e, 0xbb, 0x0b,
  0xef, 0x11, 0xb9, 0xae, 0xeb, 0xff, 0xb2, 0x1b, 0x81, 0x00, 0x27, 0x8c,
  0x14, 0x81, 0xbf, 0xd3, 0x0a, 0x9c, 0x0e, 0x0e, 0xf0, 0xeb, 0x35, 0x42,
  0x1c, 0x81, 0x13, 0x6f, 0x9a, 0xe6, 0x18, 0xb1, 0xf5, 0xfd, 0x10, 0x81,
  0x1b, 0x09, 0xfc, 0x40, 0x1d, 0x1c, 0xdf, 0xf4, 0x39, 0x11, 0x08, 0x12,
  0x01, 0xef, 0xc6, 0x05, 0xf2, 0x07, 0x3f, 0xa1, 0xab, 0x4a, 0x06, 0x6f,
  0x6a, 0x81, 0x18, 0x15, 0xe3, 0xf2, 0x0d, 0x0a, 0xf3, 0xff, 0x2a, 0xeb,
  0x7f, 0xe1, 0x2a, 0xd6, 0xca, 0xfa, 0x1e, 0xe5, 0xf4, 0x19, 0xd9, 0x25,
  0xc6, 0xfe, 0xe8, 0x05, 0x7f, 0x36, 0x2b, 0x17, 0x1a, 0xba, 0xb4, 0xf0,
  0xf3, 0xfc, 0x23, 0x06, 0x00, 0xe7, 0x06, 0xd0, 0xb8, 0x1c, 0xf1, 0x81,
  0xf5, 0xbf, 0x9f, 0x5c, 0x00, 0xc6, 0xb5, 0x87, 0x4d, 0xea, 0xef, 0x09,
  0xde, 0x81, 0x09, 0x64, 0x1f, 0xba, 0x0d, 0x89, 0x03, 0x0c, 0x7f, 0x0a,
  0x1b, 0xec, 0xf6, 0x8c, 0x32, 0xaa, 0x08, 0xf3, 0x57, 0x38, 0x04, 0x2b,
  0x14, 0xe7, 0xc6, 0xd8, 0xe0, 0xe5, 0xfc, 0xed, 0xe6, 0x3c, 0x03, 0xdf,
  0x1b, 0x01, 0x2a, 0x7f, 0xfc, 0xe0, 0xf9, 0xf2, 0xe6, 0x0d, 0x06, 0x0b,
  0x7f, 0xf1, 0x14, 0x09, 0xf5, 0x2e, 0x60, 0xcc, 0x0c, 0xe1, 0x42, 0xde,
  0xde, 0xe8, 0xe8, 0xaa, 0xdd, 0x2e, 0x30, 0x81, 0x60, 0x2e, 0x14, 0x5c,
  0xcb, 0x08, 0x10, 0xd8, 0xfe, 0xf8, 0xfb, 0xc7, 0x11, 0x00, 0x06, 0x7f,
  0xfc, 0x05, 0xe9, 0x0d, 0x8a, 0xc8, 0xc1, 0x60, 0xe5, 0x20, 0xb5, 0x3b,
  0x10, 0x6a, 0xfb, 0x81, 0x45, 0x05, 0x0a, 0x39, 0x1e, 0x94, 0xf4, 0xd9,
  0xf9, 0x0c, 0xff, 0xf7, 0x7f, 0xf5, 0xfd, 0xef, 0xf1, 0x46, 0x32, 0x09,
  0x0b, 0xf8, 0x07, 0x21, 0xf6, 0x0c, 0xf6, 0xf4, 0x08, 0xec, 0x09, 0xe3,
  0x81, 0xf7, 0x0c, 0x0f, 0x08, 0x2c, 0xc6, 0x1a, 0xdf, 0xd6, 0x14, 0x3f,
  0x2b, 0xb6, 0x15, 0xc2, 0xc3, 0xff, 0x6f, 0x81, 0x56, 0xd0, 0xff, 0xff,
  0x04, 0x00, 0x00, 0x00, 0x80, 0x00, 0x00, 0x00, 0xc7, 0x04, 0x00, 0x00,
  0x91, 0xfa, 0xff, 0xff, 0xe0, 0x07, 0x00, 0x00, 0x55, 0xfb, 0xff, 0xff,
  0x44, 0x00, 0x00, 0x00, 0x30, 0x07, 0x00, 0x00, 0xac, 0x07, 0x00, 0x00,
  0x30, 0x0b, 0x00, 0x00, 0x87, 0x03, 0x00, 0x00, 0xb3, 0xfd, 0xff, 0xff,
  0xa2, 0x02, 0x00, 0x00, 0x3a, 0x01, 0x00, 0x00, 0xdd, 0x00, 0x00, 0x00,
  0x35, 0x05, 0x00, 0x00, 0x02, 0xff, 0xff, 0xff, 0x1b, 0x09, 0x00, 0x00,
  0x37, 0xff, 0xff, 0xff, 0xe8, 0xfe, 0xff, 0xff, 0x37, 0x02, 0x00, 0x00,
  0x37, 0x01, 0x00, 0x00, 0xfa, 0xfe, 0xff, 0xff, 0x4c, 0x06, 0x00, 0x00,
  0x45, 0xf7, 0xff, 0xff, 0xb8, 0x02, 0x00, 0x00, 0x40, 0x02, 0x00, 0x00,
  0x0d, 0x01, 0x00, 0x00, 0x6d, 0x06, 0x00, 0x00, 0xcc, 0xff, 0xff, 0xff,
  0x0c, 0xf8, 0xff, 0xff, 0xcb, 0xff, 0xff, 0xff, 0xee, 0x04, 0x00, 0x00,
  0x9c, 0x02, 0x00, 0x00, 0xe2, 0xd0, 0xff, 0xff, 0x04, 0x00, 0x00, 0x00,
  0x60, 0x00, 0x00, 0x00, 0x81, 0x81, 0xe8, 0xe7, 0x7f, 0xc9, 0x7f, 0x51,
  0x81, 0xd6, 0x81, 0x5c, 0x5e, 0x29, 0x44, 0x7f, 0x81, 0x81, 0x81, 0x81,
  0xd4, 0xe0, 0x78, 0xa1, 0x8a, 0x7f, 0x39, 0xde, 0xba, 0x63, 0xb7, 0xc4,
  0xd3, 0x85, 0xd1, 0x56, 0xd8, 0x81, 0xdc, 0x7f, 0x8e, 0xe5, 0x9a, 0x7f,
  0x7f, 0x7f, 0x7f, 0x56, 0xe4, 0x2d, 0xf4, 0xb3, 0xb1, 0x10, 0x7f, 0x81,
  0x7f, 0xce, 0x81, 0x5a, 0x7f, 0x7f, 0x81, 0x7f, 0x34, 0x3b, 0x81, 0x7f,
  0x26, 0xe8, 0x8b, 0x53, 0xc4, 0x81, 0x33, 0x11, 0x04, 0x69, 0x1b, 0xbd,
  0x95, 0xeb, 0xa6, 0xd6, 0x81, 0x81, 0xed, 0xa0, 0x68, 0x0d, 0x05, 0x7f,
  0x74, 0xee, 0xb5, 0x5d, 0x50, 0x8c, 0xff, 0xff, 0x52, 0xd1, 0xff, 0xff,
  0x04, 0x00, 0x00, 0x00, 0x80, 0x00, 0x00, 0x00, 0x00, 0x00, 0x00, 0x00,
  0x00, 0x00, 0x00, 0x00, 0x00, 0x00, 0x00, 0x00, 0x00, 0x00, 0x00, 0x00,
  0x00, 0x00, 0x00, 0x00, 0x00, 0x00, 0x00, 0x00, 0x00, 0x00, 0x00, 0x00,
  0x00, 0x00, 0x00, 0x00, 0x00, 0x00, 0x00, 0x00, 0x00, 0x00, 0x00, 0x00,
  0x00, 0x00, 0x00, 0x00, 0x00, 0x00, 0x00, 0x00, 0x00, 0x00, 0x00, 0x00,
  0x00, 0x00, 0x00, 0x00, 0x00, 0x00, 0x00, 0x00, 0x00, 0x00, 0x00, 0x00,
  0x00, 0x00, 0x00, 0x00, 0x00, 0x00, 0x00, 0x00, 0x00, 0x00, 0x00, 0x00,
  0x00, 0x00, 0x00, 0x00, 0x00, 0x00, 0x00, 0x00, 0x00, 0x00, 0x00, 0x00,
  0x00, 0x00, 0x00, 0x00, 0x00, 0x00, 0x00, 0x00, 0x00, 0x00, 0x00, 0x00,
  0x00, 0x00, 0x00, 0x00, 0x00, 0x00, 0x00, 0x00, 0x00, 0x00, 0x00, 0x00,
  0x00, 0x00, 0x00, 0x00, 0x00, 0x00, 0x00, 0x00, 0x00, 0x00, 0x00, 0x00,
  0x00, 0x00, 0x00, 0x00, 0xde, 0xd1, 0xff, 0xff, 0x04, 0x00, 0x00, 0x00,
  0x00, 0x04, 0x00, 0x00, 0x05, 0x10, 0xda, 0x0d, 0x0f, 0x29, 0x06, 0x08,
  0x37, 0x17, 0xec, 0x7b, 0x85, 0xb7, 0x1c, 0x13, 0xa6, 0xfd, 0x16, 0x14,
  0xdc, 0xe7, 0xda, 0xe0, 0x79, 0x43, 0x90, 0x7f, 0x96, 0x3a, 0x4e, 0x64,
  0x0b, 0x18, 0x0a, 0xfb, 0xf1, 0xee, 0xf5, 0x04, 0x12, 0x7f, 0x07, 0x15,
  0x0c, 0x11, 0x0b, 0xf7, 0xf8, 0x05, 0x01, 0x0b, 0x03, 0xf1, 0x06, 0xd0,
  0xfe, 0x02, 0xfd, 0xf2, 0xe1, 0xfd, 0x09, 0xf4, 0x13, 0x03, 0x13, 0x14,
  0xe9, 0x21, 0xe6, 0x21, 0xd5, 0x89, 0x6a, 0x2d, 0x41, 0x0b, 0xf8, 0x1d,
  0xfe, 0xc9, 0xf8, 0x16, 0xd6, 0x5f, 0xf1, 0x10, 0x17, 0x09, 0x15, 0xd5,
  0x81, 0x1a, 0x03, 0x25, 0xfa, 0x04, 0x07, 0xf5, 0x15, 0x2c, 0x09, 0x13,
  0x10, 0x7f, 0xf7, 0x03, 0xf1, 0x11, 0x07, 0xeb, 0xfb, 0x1a, 0xf9, 0x04,
  0xfd, 0x0d, 0x08, 0x24, 0x0d, 0x07, 0x00, 0xf0, 0xe9, 0x1d, 0x02, 0x08,
  0x0d, 0x28, 0xbb, 0xf1, 0xd4, 0xa8, 0x9c, 0xef, 0xfd, 0x14, 0xd6, 0xe0,
  0xbc, 0x2a, 0x2b, 0x34, 0x27, 0x64, 0xb9, 0x1d, 0x28, 0x81, 0x13, 0x41,
  0x12, 0x38, 0xe4, 0x27, 0x92, 0x22, 0xf0, 0xef, 0x13, 0x03, 0xe8, 0x0c,
  0x17, 0x11, 0xdd, 0x10, 0xfd, 0x19, 0xf0, 0xfe, 0x13, 0xf2, 0x11, 0xf4,
  0x0d, 0x0b, 0x01, 0xf0, 0x01, 0xff, 0x09, 0x7f, 0x03, 0xfe, 0x0d, 0xb0,
  0x05, 0x0a, 0x08, 0x1d, 0xf1, 0xe7, 0xfd, 0x0e, 0xe0, 0xd7, 0x1b, 0xe9,
  0x08, 0x04, 0xf0, 0x09, 0x01, 0x06, 0xee, 0xff, 0x00, 0x11, 0xe9, 0xfc,
  0xec, 0xe9, 0xff, 0xfc, 0x07, 0x10, 0x23, 0x81, 0x25, 0xf0, 0xec, 0xf2,
  0xe4, 0x04, 0xf7, 0x15, 0x10, 0xf6, 0xee, 0x1d, 0x29, 0xd3, 0x28, 0x21,
  0x0d, 0x37, 0xcb, 0x2b, 0x0f, 0x24, 0xf9, 0x03, 0xeb, 0xef, 0x19, 0x5b,
  0x34, 0xe9, 0x25, 0x7f, 0x2f, 0x14, 0x2d, 0x15, 0xf4, 0x00, 0x56, 0x9d,
  0xa7, 0x29, 0x2e, 0xd2, 0xce, 0xc6, 0xac, 0xef, 0x98, 0xbe, 0x94, 0xf2,
  0x1b, 0x5e, 0x7f, 0x78, 0xfd, 0x57, 0x8a, 0xc7, 0x48, 0xd7, 0x0d, 0x02,
  0xb8, 0xf8, 0xe3, 0x0c, 0xdc, 0x20, 0x19, 0xf5, 0xb4, 0x10, 0x0e, 0xfe,
  0xe6, 0x60, 0x08, 0x36, 0xef, 0x01, 0x1a, 0x38, 0xc1, 0x81, 0x22, 0xee,
  0x12, 0x16, 0x0f, 0xcb, 0x20, 0x26, 0xf6, 0x0b, 0x8f, 0x05, 0xe7, 0x27,
  0x00, 0x52, 0x2d, 0x0e, 0xf5, 0x07, 0xea, 0xfa, 0xf5, 0x0c, 0x7f, 0x02,
  0x15, 0xc4, 0x0a, 0x1a, 0xeb, 0x78, 0x22, 0xdc, 0xe6, 0x38, 0x0e, 0xad,
  0xe7, 0x17, 0x1b, 0x63, 0xd0, 0x10, 0xdb, 0x13, 0xe5, 0x66, 0xea, 0x03,
  0xb3, 0x01, 0x1a, 0x22, 0xf9, 0xe4, 0x13, 0x2d, 0xe5, 0xd6, 0x0a, 0x27,
  0xf1, 0xf0, 0x4e, 0x11, 0x1b, 0x1c, 0xe4, 0x7f, 0xb6, 0x1a, 0x04, 0xeb,
  0xe3, 0xb2, 0x04, 0xfe, 0xfa, 0xf7, 0xff, 0xfc, 0x11, 0x00, 0xe4, 0x14,
  0x1e, 0xe7, 0x0e, 0x21, 0xfd, 0x07, 0xe4, 0x09, 0xec, 0xcc, 0xf7, 0xf1,
  0x0d, 0x01, 0xf7, 0xe4, 0x05, 0xfa, 0xf6, 0x81, 0xb1, 0x0f, 0xf3, 0x09,
  0x19, 0x03, 0x00, 0xfd, 0x00, 0xfb, 0xd5, 0x10, 0x21, 0x01, 0xf8, 0xea,
  0x05, 0x01, 0xb9, 0xf5, 0x10, 0x02, 0x03, 0xe6, 0x07, 0x00, 0x02, 0x7f,
  0xff, 0x14, 0xfd, 0x06, 0x0b, 0xf9, 0x1c, 0x10, 0x05, 0x0a, 0x09, 0xf3,
  0x1e, 0x24, 0xfa, 0xf2, 0xf5, 0x7e, 0xf5, 0x03, 0x25, 0xc8, 0x03, 0x81,
  0xef, 0xe6, 0x14, 0xf6, 0x55, 0x12, 0xf6, 0xec, 0xc9, 0x22, 0x31, 0x22,
  0x2a, 0xb8, 0xff, 0x0d, 0xec, 0x01, 0x02, 0xf6, 0x1a, 0x00, 0xe2, 0xfd,
  0x01, 0xfd, 0xf3, 0x01, 0x81, 0xe7, 0x23, 0xd8, 0xf5, 0x13, 0x19, 0x05,
  0x0f, 0x13, 0xf8, 0x0c, 0xf6, 0x0e, 0xf5, 0x1d, 0x0e, 0x20, 0xea, 0x13,
  0xe4, 0x31, 0x0c, 0x12, 0xd0, 0x38, 0xd9, 0x11, 0xe2, 0xf7, 0x00, 0x0a,
  0xd2, 0xf4, 0x27, 0xef, 0xe5, 0x43, 0x3d, 0xfa, 0xf8, 0x0d, 0xf9, 0xff,
  0xf3, 0xf7, 0x7f, 0x0d, 0xde, 0xf5, 0xe8, 0x2d, 0x36, 0x4d, 0xfe, 0xf4,
  0x0a, 0xd5, 0xac, 0xf6, 0xdc, 0x58, 0xe3, 0x07, 0x06, 0xf3, 0x1b, 0xf5,
  0xcc, 0xdb, 0x06, 0xf2, 0xfb, 0x11, 0xe9, 0xb9, 0xdd, 0x25, 0x1b, 0x81,
  0x5a, 0x03, 0xee, 0x02, 0x0d, 0x45, 0x2d, 0xf6, 0xbc, 0x10, 0xc2, 0xe5,
  0x5c, 0xce, 0x1a, 0xcf, 0x21, 0x02, 0x2e, 0x88, 0x13, 0xe0, 0x21, 0xa2,
  0x5d, 0x43, 0xbb, 0x06, 0x3b, 0x20, 0x7f, 0x4a, 0x46, 0xe2, 0x24, 0xbf,
  0xf3, 0xed, 0xe2, 0x02, 0xe7, 0x42, 0x06, 0x0b, 0xf2, 0x30, 0xfd, 0x15,
  0x22, 0x96, 0x0d, 0x81, 0xf6, 0x06, 0x1a, 0xf5, 0x14, 0xf4, 0x08, 0x0c,
  0x0c, 0x0b, 0x08, 0xf7, 0x51, 0x01, 0xdb, 0xd8, 0xf6, 0x04, 0x00, 0xf9,
  0x11, 0x24, 0xf6, 0x12, 0xff, 0x7f, 0x0e, 0xf7, 0x01, 0x03, 0xf0, 0x0b,
  0x12, 0xf0, 0x07, 0xfb, 0x03, 0x0a, 0x03, 0xdd, 0x04, 0x06, 0x06, 0xf5,
  0xfd, 0x0c, 0xf4, 0x02, 0x13, 0xe2, 0xe2, 0x14, 0xfa, 0x6f, 0xe5, 0x08,
  0x0d, 0xd9, 0x3c, 0xf3, 0xf6, 0xf5, 0xed, 0x08, 0xd2, 0x81, 0x21, 0xe1,
  0xe1, 0x2d, 0x0e, 0x4e, 0x0b, 0x20, 0x0a, 0x72, 0x18, 0xfa, 0xca, 0x0f,
  0x19, 0x0a, 0x07, 0x02, 0xf9, 0x24, 0x00, 0x09, 0xe9, 0x05, 0x28, 0x0e,
  0xf4, 0xff, 0x06, 0x00, 0xeb, 0xfa, 0x18, 0x01, 0x0f, 0x0b, 0xfe, 0xe6,
  0xf3, 0x06, 0x02, 0x13, 0x81, 0xfc, 0xfb, 0x1b, 0x61, 0xe8, 0x33, 0x1f,
  0x20, 0xe0, 0x0e, 0x9b, 0xa5, 0x34, 0xfc, 0xf7, 0x00, 0x17, 0x7f, 0x05,
  0xbd, 0x56, 0xec, 0x3c, 0xe4, 0x12, 0x08, 0xa4, 0x00, 0x24, 0x00, 0xca,
  0xe8, 0xdf, 0x68, 0xde, 0xd0, 0x50, 0xee, 0x1b, 0x04, 0xd7, 0xf0, 0x3e,
  0xc1, 0x13, 0xb6, 0x88, 0xd2, 0xe9, 0x33, 0xe1, 0xd4, 0x20, 0x1d, 0xd8,
  0x19, 0x06, 0xf0, 0x98, 0xe8, 0x3b, 0x5a, 0x7f, 0x4b, 0xf6, 0xf1, 0x41,
  0x18, 0x2d, 0xfd, 0x09, 0xf7, 0x16, 0xfe, 0x0e, 0xf2, 0x23, 0x0b, 0xf8,
  0x0e, 0x03, 0xfb, 0x2c, 0xdb, 0xeb, 0xeb, 0x81, 0xe0, 0x30, 0xfb, 0x11,
  0x05, 0x16, 0xe3, 0xf2, 0x0a, 0x13, 0x0b, 0x1f, 0xe8, 0xf2, 0x23, 0xeb,
  0x1a, 0x7f, 0x0a, 0x0c, 0xc9, 0x27, 0xee, 0xcb, 0xf3, 0xdd, 0x3f, 0x29,
  0xcc, 0xb6, 0x36, 0xff, 0x2b, 0x17, 0x18, 0xac, 0xa0, 0x1a, 0xf2, 0xfe,
  0x11, 0xe7, 0xd1, 0x1a, 0x16, 0x0d, 0xe0, 0x17, 0x3f, 0xc1, 0x19, 0xf4,
  0x10, 0xd5, 0x02, 0x2c, 0x17, 0x87, 0x1b, 0x06, 0x04, 0xa7, 0xf7, 0x14,
  0x6d, 0xfe, 0xf3, 0xab, 0xd7, 0x81, 0x3d, 0xfa, 0xbc, 0xf7, 0xee, 0xfd,
  0x5a, 0x66, 0x8e, 0xf7, 0xdb, 0xd0, 0xb5, 0x1f, 0x19, 0xf2, 0x16, 0x47,
  0x92, 0xf4, 0xd1, 0x2f, 0xf6, 0x11, 0xba, 0xbc, 0x25, 0xbc, 0xf9, 0x81,
  0x15, 0x45, 0x30, 0x1f, 0x36, 0x3a, 0xe5, 0x07, 0xa7, 0x50, 0x00, 0xc2,
  0x0b, 0xf9, 0xd3, 0xc1, 0xd9, 0x1f, 0x7f, 0x8e, 0x2c, 0xcd, 0x1b, 0x9d,
  0x59, 0x1c, 0x41, 0x28, 0xc0, 0x0b, 0x63, 0x1c, 0x3f, 0xdc, 0xc9, 0x04,
  0xb8, 0xaf, 0x67, 0xe8, 0xf3, 0x7f, 0x42, 0xff, 0x2a, 0x6d, 0xf7, 0x04,
  0xef, 0xf2, 0x54, 0x02, 0x1f, 0xd1, 0x07, 0xfe, 0xf8, 0xe6, 0x41, 0x02,
  0xec, 0xec, 0xf3, 0xfd, 0x10, 0x0a, 0xfa, 0x4c, 0x52, 0x00, 0xf2, 0xf7,
  0xcb, 0xfd, 0x22, 0x5e, 0xd9, 0x54, 0xdb, 0x46, 0x7f, 0x59, 0xd5, 0xc5,
  0xd6, 0x0d, 0xb1, 0xe2, 0xea, 0x34, 0x69, 0x12, 0x5b, 0x42, 0x33, 0x3a,
  0xd0, 0xde, 0x18, 0xd5, 0x26, 0x91, 0x79, 0xe0, 0xea, 0xd5, 0xff, 0xff,
  0x04, 0x00, 0x00, 0x00, 0x80, 0x00, 0x00, 0x00, 0xf6, 0x00, 0x00, 0x00,
  0x23, 0x00, 0x00, 0x00, 0x85, 0x00, 0x00, 0x00, 0xc7, 0x00, 0x00, 0x00,
  0xb3, 0x05, 0x00, 0x00, 0xa1, 0x00, 0x00, 0x00, 0x79, 0x00, 0x00, 0x00,
  0x21, 0x02, 0x00, 0x00, 0xaa, 0xfb, 0xff, 0xff, 0xb7, 0xff, 0xff, 0xff,
  0x63, 0xff, 0xff, 0xff, 0x3e, 0x01, 0x00, 0x00, 0x49, 0x00, 0x00, 0x00,
  0xda, 0xff, 0xff, 0xff, 0x3b, 0xfe, 0xff, 0xff, 0x72, 0x00, 0x00, 0x00,
  0x7d, 0xff, 0xff, 0xff, 0x15, 0x00, 0x00, 0x00, 0xfb, 0xfa, 0xff, 0xff,
  0xd8, 0x01, 0x00, 0x00, 0x8d, 0x00, 0x00, 0x00, 0xe9, 0x00, 0x00, 0x00,
  0x1b, 0x00, 0x00, 0x00, 0x61, 0xfb, 0xff, 0xff, 0x6c, 0x02, 0x00, 0x00,
  0xa5, 0x02, 0x00, 0x00, 0xf0, 0xfe, 0xff, 0xff, 0x03, 0xfe, 0xff, 0xff,
  0x19, 0x02, 0x00, 0x00, 0x6e, 0xfe, 0xff, 0xff, 0x0a, 0xff, 0xff, 0xff,
  0x79, 0xfe, 0xff, 0xff, 0x76, 0xd6, 0xff, 0xff, 0x04, 0x00, 0x00, 0x00,
  0x60, 0x00, 0x00, 0x00, 0x7f, 0x2d, 0x2c, 0x0e, 0x11, 0x7f, 0xee, 0xba,
  0xb3, 0x30, 0x7f, 0x81, 0x40, 0x7d, 0x62, 0x81, 0xdd, 0x7f, 0x3f, 0x81,
  0x05, 0x7f, 0x81, 0x7f, 0x81, 0x81, 0x7f, 0x7f, 0x30, 0x7f, 0x7f, 0x7f,
  0x63, 0x20, 0x7f, 0xa9, 0x7f, 0x22, 0x81, 0xd7, 0xeb, 0x7f, 0x09, 0xf7,
  0x25, 0x7f, 0x7f, 0xda, 0xa5, 0x38, 0x7f, 0xa0, 0xdb, 0x57, 0xca, 0x4e,
  0xed, 0x3a, 0x5f, 0x37, 0x0f, 0x21, 0x7b, 0x88, 0x64, 0x7f, 0x77, 0x81,
  0x20, 0x3a, 0xcc, 0x81, 0x7f, 0x2e, 0x59, 0xa3, 0x7f, 0x6b, 0x5c, 0x0e,
  0x81, 0x62, 0x11, 0xaa, 0x81, 0x1c, 0xb5, 0x6c, 0xfb, 0x4f, 0xd3, 0x4e,
  0x7f, 0xc6, 0x7c, 0x1a, 0xe2, 0xd6, 0xff, 0xff, 0x04, 0x00, 0x00, 0x00,
  0x00, 0x08, 0x00, 0x00, 0xcc, 0xf4, 0x97, 0xca, 0x02, 0x15, 0x7f, 0x4f,
  0x1c, 0x10, 0xba, 0xc8, 0xd7, 0x3c, 0xce, 0x3f, 0x21, 0x12, 0xcf, 0xd7,
  0x6d, 0xff, 0x32, 0xe7, 0x34, 0x0f, 0xf9, 0x05, 0x86, 0xe7, 0xc1, 0x02,
  0xf9, 0x0d, 0xf2, 0x17, 0xf4, 0xf4, 0x11, 0x7f, 0x08, 0x11, 0xde, 0xfe,
  0x00, 0x1f, 0xfe, 0xef, 0x06, 0xfe, 0x05, 0xf8, 0x01, 0xf5, 0xf4, 0x14,
  0x0c, 0x19, 0xf3, 0x01, 0x00, 0x00, 0x01, 0x07, 0xfa, 0x05, 0x03, 0x1a,
  0xce, 0x04, 0x10, 0xf3, 0xf5, 0x0b, 0xf2, 0x00, 0xfe, 0x0b, 0xce, 0xe5,
  0x0e, 0x0e, 0x08, 0x01, 0xf2, 0x08, 0xfc, 0x81, 0xf2, 0xd8, 0x0a, 0xad,
  0xde, 0x08, 0x03, 0xff, 0x00, 0x21, 0xed, 0xfc, 0xf2, 0xf0, 0xfe, 0xd6,
  0x05, 0x01, 0x8c, 0x2d, 0xec, 0xf3, 0xb1, 0xd4, 0x7e, 0xd6, 0x13, 0x21,
  0x31, 0x81, 0xa8, 0xcd, 0xfe, 0x1f, 0x67, 0x15, 0x12, 0xf3, 0x52, 0xf4,
  0x08, 0xef, 0xe6, 0xeb, 0xe0, 0xde, 0x17, 0x4d, 0x0f, 0xf6, 0x01, 0x04,
  0xe2, 0x27, 0x81, 0x01, 0xd2, 0xfc, 0x0e, 0xfe, 0xfc, 0xe1, 0xfb, 0x35,
  0x16, 0x26, 0xe0, 0x27, 0xd8, 0x06, 0xf0, 0x01, 0x00, 0x0a, 0xfd, 0x05,
  0xf9, 0xf7, 0x1c, 0xf8, 0x02, 0x07, 0xff, 0x09, 0xfe, 0xff, 0x00, 0x08,
  0x00, 0x00, 0x00, 0xf1, 0xf9, 0x07, 0xfa, 0x14, 0x02, 0x04, 0xfc, 0xbc,
  0xfa, 0x04, 0x81, 0x03, 0xf7, 0xa4, 0x18, 0x6b, 0xce, 0x1a, 0x31, 0xf5,
  0xbf, 0xd6, 0x0e, 0xf9, 0xf8, 0xcd, 0x7f, 0xfd, 0xec, 0xda, 0xc3, 0x1c,
  0x14, 0xd0, 0xb8, 0xc9, 0x3c, 0xe5, 0x51, 0x39, 0xc0, 0xd2, 0xcb, 0x26,
  0x00, 0xad, 0x02, 0x29, 0xf1, 0xfb, 0x13, 0x23, 0x02, 0xff, 0x0b, 0x01,
  0xee, 0xfc, 0xfb, 0xf6, 0xfb, 0xfd, 0x06, 0xf4, 0xff, 0xfc, 0x0f, 0xdf,
  0x07, 0x05, 0x04, 0x81, 0xfc, 0x04, 0x10, 0x04, 0xf2, 0xd3, 0xfa, 0xf2,
  0xd7, 0xf3, 0x7f, 0x1b, 0x03, 0x02, 0xfe, 0xfa, 0xf9, 0xe7, 0x05, 0xe0,
  0xe9, 0xf9, 0x0c, 0x06, 0xe6, 0x04, 0xde, 0xfd, 0x25, 0x08, 0xfc, 0x29,
  0x9e, 0xf4, 0x00, 0x0a, 0xff, 0xb5, 0x92, 0xd1, 0x1f, 0xf9, 0xf4, 0x07,
  0x0c, 0x90, 0xc7, 0xf4, 0xd3, 0xaa, 0xfd, 0xe8, 0x01, 0xcc, 0xfa, 0xf8,
  0xc7, 0xf2, 0xe9, 0x28, 0xf4, 0x3d, 0x2e, 0xbd, 0x1a, 0xe6, 0x81, 0x08,
  0xc1, 0x8e, 0x27, 0x08, 0xd2, 0x04, 0x41, 0x21, 0x07, 0x37, 0x18, 0x2c,
  0xea, 0x37, 0xb6, 0x04, 0xff, 0x54, 0xe1, 0xb7, 0xc2, 0xd1, 0x07, 0xfe,
  0xae, 0x15, 0xaa, 0x81, 0xb0, 0x25, 0x89, 0x1a, 0x13, 0x1e, 0x9b, 0x0c,
  0xe0, 0x07, 0x07, 0x19, 0x03, 0xff, 0xfa, 0xeb, 0xe6, 0x03, 0x81, 0xff,
  0xfb, 0x21, 0xfa, 0xff, 0x04, 0xe6, 0x6a, 0x02, 0xf2, 0x11, 0x0e, 0xf2,
  0xf7, 0x0f, 0x31, 0x05, 0xb0, 0xf6, 0x0c, 0xd9, 0xaf, 0x13, 0xc2, 0x06,
  0xef, 0x27, 0x1c, 0xea, 0xee, 0x81, 0x24, 0xac, 0x07, 0xee, 0x13, 0x78,
  0x36, 0xde, 0x39, 0x1d, 0x09, 0x7a, 0x3b, 0xf9, 0xd9, 0xec, 0xc9, 0xf1,
  0x12, 0x10, 0xfb, 0xf9, 0xf8, 0xeb, 0xf9, 0x03, 0xf5, 0x1e, 0xdc, 0x07,
  0x03, 0x0f, 0x1e, 0x08, 0x5f, 0x11, 0xf5, 0x7f, 0x11, 0x05, 0x3d, 0xb8,
  0x06, 0xfb, 0x48, 0xf5, 0xf7, 0xff, 0x14, 0x08, 0xfd, 0x0f, 0x04, 0xfc,
  0xd8, 0xfe, 0x7f, 0xe9, 0x08, 0xfb, 0x0d, 0xfd, 0xf5, 0x23, 0xda, 0x03,
  0xf7, 0xe5, 0x05, 0xe0, 0x03, 0xf9, 0xf9, 0xe2, 0x05, 0xfe, 0xed, 0xb9,
  0x85, 0xff, 0x16, 0x06, 0x15, 0xc6, 0x16, 0xf7, 0xf1, 0xe4, 0x16, 0x05,
  0x10, 0x01, 0x16, 0xf6, 0x09, 0x9c, 0x2e, 0x7f, 0xf4, 0xe5, 0x04, 0x30,
  0xec, 0x05, 0xf9, 0x32, 0xff, 0x03, 0xf8, 0x18, 0xd7, 0x01, 0xd7, 0x01,
  0xf3, 0x00, 0xe4, 0x12, 0x04, 0x0a, 0x15, 0x0f, 0x0c, 0xf3, 0xa6, 0x06,
  0x25, 0x0e, 0x25, 0xf2, 0x7f, 0xfc, 0xf3, 0x0c, 0xdc, 0xd8, 0xbe, 0xf3,
  0xf5, 0x12, 0x00, 0xf8, 0x08, 0x1d, 0xd4, 0xf0, 0x02, 0xf9, 0x07, 0xf9,
  0xf7, 0xfb, 0x06, 0xfd, 0xfe, 0x02, 0x0e, 0xff, 0xfc, 0x12, 0x19, 0x12,
  0xf6, 0xe7, 0x05, 0x51, 0xfd, 0xff, 0xee, 0x81, 0x0b, 0xfc, 0xec, 0x1c,
  0x02, 0x01, 0x02, 0x01, 0x0b, 0xe0, 0x05, 0x09, 0xfb, 0x02, 0xff, 0xf8,
  0x08, 0x03, 0xe3, 0x0b, 0x07, 0x16, 0xc9, 0xf8, 0xf7, 0xf1, 0x00, 0xe2,
  0xfc, 0x07, 0xd8, 0xf6, 0x1f, 0x00, 0xde, 0xdf, 0xf5, 0x05, 0x81, 0xf6,
  0xa7, 0xf6, 0xd8, 0x19, 0x95, 0xdb, 0x7e, 0xf2, 0x06, 0x01, 0x1e, 0x74,
  0xe0, 0xc1, 0x65, 0x5d, 0x13, 0x82, 0x07, 0x7f, 0x46, 0x4f, 0x53, 0x10,
  0x57, 0xe7, 0x43, 0xbf, 0xe8, 0xf6, 0xe3, 0xe5, 0xa0, 0x1e, 0x1f, 0x2d,
  0x0b, 0xd4, 0x26, 0xee, 0xfb, 0xf7, 0x21, 0xf6, 0xb2, 0x13, 0x81, 0xda,
  0xfb, 0xd6, 0xee, 0x22, 0xd8, 0xed, 0xd2, 0xf8, 0x1c, 0xd9, 0x09, 0x44,
  0xe0, 0xfb, 0xdc, 0x0f, 0x0b, 0x0e, 0xf9, 0x05, 0xe5, 0xfa, 0x6e, 0x16,
  0x01, 0x08, 0x0f, 0x0b, 0xfe, 0x02, 0x81, 0xee, 0x06, 0xf4, 0xfb, 0x34,
  0x0c, 0x0a, 0xfa, 0xec, 0x07, 0x13, 0xfa, 0x0c, 0x09, 0x01, 0x01, 0xfc,
  0xc6, 0xea, 0xd8, 0x69, 0xfc, 0xda, 0xf1, 0xee, 0x05, 0xd9, 0x94, 0x0e,
  0xc6, 0xd3, 0xae, 0xf8, 0x0c, 0x0e, 0x02, 0xe5, 0xe5, 0xfd, 0xa3, 0xf6,
  0xfc, 0xd1, 0xfd, 0x2d, 0xe3, 0x0f, 0x81, 0x09, 0x18, 0x20, 0xc0, 0xdc,
  0xdc, 0x13, 0x20, 0x7f, 0x04, 0xe7, 0x14, 0xcd, 0xf1, 0x06, 0xb5, 0xef,
  0xeb, 0x07, 0x08, 0x1a, 0x12, 0xb0, 0x10, 0x0f, 0x19, 0xd7, 0x00, 0x23,
  0x10, 0xef, 0xf5, 0xf3, 0xfd, 0x09, 0xff, 0xfa, 0x01, 0xfd, 0xfb, 0x0d,
  0x00, 0x08, 0xc6, 0x0d, 0x0a, 0x00, 0x03, 0x01, 0x33, 0x04, 0x05, 0x7f,
  0x01, 0x01, 0x0a, 0xf6, 0x05, 0xfa, 0x29, 0xea, 0xfb, 0x03, 0x0f, 0x06,
  0x0f, 0xfd, 0xc2, 0x19, 0x2d, 0x93, 0x6a, 0x10, 0x1c, 0xd9, 0x2d, 0x5a,
  0x83, 0xdc, 0x13, 0xef, 0xdf, 0x81, 0x0e, 0x11, 0x9f, 0xba, 0x3a, 0x11,
  0x7b, 0xd9, 0xc7, 0xf0, 0xa7, 0xc8, 0x38, 0xcc, 0xfb, 0x1c, 0xfa, 0xf6,
  0xfa, 0x17, 0xfb, 0x7f, 0x05, 0xf2, 0xde, 0xf5, 0xe9, 0xf9, 0x1b, 0x28,
  0xe6, 0xf2, 0xfa, 0xf9, 0xcc, 0x13, 0xfe, 0x2f, 0xf2, 0xac, 0x05, 0x98,
  0xe1, 0xfa, 0x00, 0xf5, 0xbf, 0xfb, 0x0d, 0x0d, 0xf4, 0xdf, 0x03, 0xfe,
  0xfa, 0xef, 0xb3, 0x06, 0x13, 0x0c, 0xe7, 0x02, 0x7f, 0xfa, 0xfb, 0xe2,
  0x02, 0x02, 0x2c, 0x06, 0x3b, 0x04, 0x11, 0x1f, 0xee, 0xfd, 0x0f, 0xfc,
  0x81, 0xcc, 0x00, 0x4b, 0xe1, 0xd8, 0xf2, 0xf6, 0x06, 0xf7, 0x17, 0xe1,
  0xa3, 0x09, 0x0e, 0x2d, 0x74, 0xe9, 0x09, 0x12, 0x1e, 0x17, 0x1c, 0xf3,
  0x95, 0x3b, 0x09, 0xf9, 0xe2, 0xe8, 0x23, 0xed, 0xd0, 0x0e, 0xb6, 0x89,
  0xdb, 0xf5, 0xfa, 0xf4, 0x03, 0x91, 0x00, 0xde, 0xce, 0xcf, 0x35, 0xf6,
  0xdb, 0x13, 0xf5, 0xee, 0xdf, 0x12, 0xb7, 0xb9, 0x11, 0x81, 0xd7, 0x47,
  0x17, 0xf5, 0xfc, 0x0e, 0xd5, 0xf0, 0xfe, 0x0c, 0xe9, 0x13, 0xf3, 0x16,
  0x08, 0xfc, 0xdf, 0xe1, 0x17, 0x15, 0x07, 0x05, 0xdd, 0xed, 0xfa, 0x08,
  0xfc, 0x1d, 0xd2, 0xf2, 0x1a, 0x81, 0x01, 0x0b, 0xf1, 0xfa, 0x07, 0xfc,
  0x08, 0xc0, 0xe3, 0xfd, 0xff, 0x0e, 0x02, 0x22, 0xfe, 0xfa, 0x09, 0x04,
  0xfd, 0xf7, 0xeb, 0x0e, 0xf2, 0x15, 0x09, 0x13, 0xf4, 0xd8, 0x0d, 0x03,
  0x02, 0xea, 0x0f, 0xfc, 0x07, 0xf9, 0x81, 0x05, 0xfc, 0xfd, 0xed, 0x28,
  0x05, 0x0a, 0x06, 0x12, 0x03, 0x14, 0x0f, 0xdd, 0x09, 0xf2, 0x81, 0x00,
  0x0a, 0xfe, 0x07, 0x17, 0xda, 0xac, 0x77, 0x17, 0xc8, 0x1f, 0x0e, 0xea,
  0x09, 0x01, 0xff, 0xf9, 0x12, 0x12, 0x0d, 0x11, 0xd1, 0xe0, 0xfa, 0x02,
  0xf6, 0x0c, 0xff, 0x14, 0x05, 0xdc, 0x9e, 0x7f, 0x03, 0x1a, 0xf8, 0xea,
  0xe9, 0xf2, 0xfc, 0x0e, 0x15, 0x04, 0xe6, 0x85, 0xe1, 0x15, 0xfe, 0xf8,
  0x15, 0xfc, 0xc8, 0xbc, 0xb1, 0x2b, 0x52, 0x61, 0xfb, 0xcc, 0x1d, 0xee,
  0xc0, 0x1d, 0xcb, 0xcb, 0x10, 0xb2, 0xfa, 0x02, 0x15, 0x0f, 0xcd, 0xc7,
  0xf6, 0xb2, 0x39, 0xc7, 0x81, 0xff, 0xfb, 0xf1, 0xf2, 0xe5, 0x81, 0xf1,
  0x9f, 0xd1, 0x22, 0xfc, 0xf0, 0x98, 0x0b, 0x16, 0x99, 0xa5, 0xad, 0x13,
  0x08, 0xd5, 0x4e, 0x48, 0x61, 0xc9, 0x28, 0x3e, 0xef, 0x3f, 0xcb, 0xb6,
  0xae, 0xe8, 0x23, 0xe9, 0xfc, 0xf9, 0x0c, 0x0e, 0xf2, 0xe2, 0x03, 0xf9,
  0xff, 0x09, 0x10, 0xfa, 0xf5, 0xf9, 0x16, 0x7f, 0x29, 0x0a, 0xfc, 0x27,
  0x01, 0x07, 0x11, 0x00, 0x06, 0x02, 0xf6, 0x01, 0xfb, 0x04, 0x03, 0x06,
  0xf8, 0x92, 0x14, 0x10, 0xed, 0x05, 0xfe, 0x35, 0x07, 0x20, 0xc2, 0xfc,
  0x03, 0x81, 0x22, 0x2d, 0x0f, 0x06, 0xef, 0xed, 0xe4, 0x1b, 0x1e, 0x12,
  0xf3, 0xf1, 0x0b, 0xdc, 0xe7, 0xf6, 0xfa, 0xf8, 0xa6, 0x19, 0x1e, 0xf4,
  0xcf, 0xbf, 0x0f, 0x06, 0x01, 0xf2, 0x10, 0xf0, 0x1f, 0x20, 0xe4, 0x26,
  0xf0, 0xf8, 0xfa, 0x04, 0xf8, 0x0b, 0xd4, 0x17, 0x7f, 0x36, 0x22, 0xd0,
  0xee, 0xf7, 0x90, 0x03, 0x02, 0x04, 0x01, 0xf2, 0xf3, 0xf7, 0x01, 0xfa,
  0x04, 0xff, 0x11, 0x0f, 0xf6, 0xd6, 0x27, 0xfc, 0x03, 0xec, 0xfe, 0xf9,
  0xfa, 0x07, 0xf8, 0x81, 0x05, 0xf5, 0xfd, 0x09, 0xec, 0xf9, 0xf6, 0xff,
  0x0a, 0x0b, 0x00, 0xfa, 0x0a, 0xfb, 0xf9, 0x14, 0xfe, 0x00, 0x04, 0x02,
  0xf7, 0x1c, 0xee, 0x0c, 0xeb, 0xec, 0xfd, 0x7f, 0xf0, 0x1d, 0xf8, 0xdd,
  0xf9, 0xfc, 0xed, 0xf2, 0xf1, 0x00, 0xd4, 0xf9, 0xc5, 0x05, 0xbf, 0x33,
  0xc9, 0xde, 0xd6, 0x7f, 0x30, 0xba, 0x25, 0xe1, 0x30, 0xc9, 0xdc, 0xe1,
  0x1e, 0xdc, 0xfd, 0xe9, 0x14, 0x53, 0x26, 0x03, 0x0f, 0xef, 0x04, 0x1d,
  0xf9, 0xde, 0x1b, 0x1c, 0xf7, 0x17, 0x81, 0xe7, 0x12, 0xf5, 0x02, 0xf3,
  0x02, 0x02, 0xf0, 0x07, 0xe9, 0xce, 0x07, 0xff, 0x0f, 0x00, 0xfb, 0xfb,
  0xc5, 0xdd, 0x20, 0x0c, 0x07, 0x19, 0x12, 0xf5, 0xfa, 0x00, 0x02, 0x03,
  0xe2, 0x22, 0xe0, 0xfc, 0x09, 0xec, 0x16, 0x30, 0xf8, 0xe4, 0x22, 0xfd,
  0x17, 0x0e, 0x1f, 0x4c, 0x7f, 0xe4, 0xf1, 0x7d, 0x01, 0x00, 0x41, 0x0c,
  0xe0, 0xc9, 0x15, 0xf4, 0x14, 0xf0, 0xe9, 0x00, 0xb7, 0x05, 0xed, 0xc5,
  0xf8, 0xda, 0x79, 0x46, 0xff, 0x81, 0x41, 0xce, 0x19, 0xec, 0xd4, 0xc8,
  0x37, 0x00, 0xc6, 0xd7, 0xe7, 0x1e, 0x5b, 0xef, 0x13, 0xf0, 0xb3, 0xd9,
  0x83, 0x22, 0xdd, 0x59, 0x01, 0x0d, 0xfb, 0x0e, 0xfc, 0xfb, 0x00, 0x00,
  0x06, 0x11, 0xd6, 0xe6, 0x05, 0x06, 0x81, 0xed, 0x5c, 0x12, 0xfd, 0x16,
  0x10, 0x06, 0x0d, 0xda, 0xf2, 0xff, 0x2e, 0xf1, 0xfb, 0x01, 0x17, 0x08,
  0x21, 0xc9, 0x2d, 0x1e, 0x0b, 0xae, 0x4f, 0xff, 0x17, 0x21, 0xbc, 0xf5,
  0xe6, 0x37, 0x38, 0x08, 0x54, 0xe2, 0xff, 0xc1, 0xc5, 0xfe, 0x10, 0x2b,
  0xd7, 0x09, 0x19, 0x81, 0xd5, 0xf9, 0xd1, 0xf1, 0xfa, 0x10, 0xd0, 0xe3,
  0x07, 0x14, 0xfd, 0x05, 0x00, 0x17, 0xce, 0xf9, 0xe0, 0x07, 0x81, 0xec,
  0x07, 0xeb, 0x02, 0x11, 0x08, 0x06, 0x05, 0xf6, 0x03, 0xdd, 0xf4, 0xfe,
  0xfd, 0x01, 0xd4, 0xfd, 0x28, 0xd9, 0x25, 0x4b, 0xd3, 0xc3, 0x33, 0x31,
  0x01, 0xd8, 0xed, 0x1c, 0xdc, 0xf6, 0x1a, 0xd1, 0x02, 0xf8, 0xeb, 0xf3,
  0xfe, 0xcb, 0xcb, 0xdd, 0xfc, 0x31, 0x25, 0xfb, 0x81, 0x0f, 0x20, 0x0f,
  0xce, 0x92, 0x9a, 0xe1, 0xb0, 0x3f, 0x0d, 0x05, 0xf2, 0x92, 0xc3, 0xe3,
  0x92, 0xc7, 0x1b, 0xee, 0xbe, 0x81, 0x09, 0x3d, 0x21, 0x90, 0xb9, 0x98,
  0x64, 0x06, 0x15, 0x52, 0xd2, 0x5f, 0x17, 0xd4, 0x0b, 0x1b, 0xf0, 0x5f,
  0xfc, 0xf6, 0x02, 0xeb, 0xf8, 0xff, 0xb4, 0x07, 0x06, 0xed, 0x12, 0x13,
  0xfd, 0x0e, 0xfe, 0xec, 0x5f, 0x01, 0xba, 0xeb, 0xe3, 0x33, 0xdf, 0xf4,
  0xff, 0x00, 0x81, 0xf0, 0x81, 0xdc, 0xff, 0x07, 0x10, 0x13, 0x03, 0xfb,
  0xf5, 0x0c, 0xf8, 0xcb, 0x0d, 0xe6, 0xf7, 0x57, 0x7b, 0x20, 0x11, 0x74,
  0x02, 0xc9, 0x74, 0x95, 0xe6, 0x1e, 0xe0, 0xcd, 0x05, 0x10, 0xf7, 0xf8,
  0xf7, 0xf9, 0x07, 0xf0, 0x01, 0x09, 0xff, 0x0e, 0xfc, 0xfb, 0x00, 0xfb,
  0x01, 0x81, 0x0f, 0x06, 0xfe, 0xf0, 0x04, 0x02, 0x03, 0x07, 0xfa, 0x17,
  0x03, 0x06, 0x04, 0xf2, 0xf0, 0xff, 0xe8, 0x01, 0x16, 0xf8, 0xf9, 0x02,
  0x03, 0xfe, 0x0b, 0x03, 0x03, 0x07, 0xc9, 0xf7, 0xfe, 0x03, 0x10, 0xe8,
  0x00, 0xea, 0x0d, 0x0a, 0x4b, 0xcf, 0x06, 0x14, 0x0b, 0xfc, 0xf9, 0xfa,
  0xdd, 0xfb, 0x81, 0x00, 0xfd, 0x0e, 0xf9, 0xf5, 0x00, 0xfb, 0x0e, 0xfb,
  0xfa, 0xe4, 0xeb, 0xfa, 0x01, 0x81, 0xe1, 0xff, 0x05, 0x0d, 0xff, 0xf1,
  0x02, 0x01, 0xfa, 0x18, 0x0d, 0xfb, 0x0b, 0xc7, 0xfb, 0x04, 0x0c, 0x06,
  0xe2, 0xfd, 0xda, 0x7f, 0xd1, 0xe8, 0x31, 0xf6, 0x10, 0x13, 0xdd, 0x09,
  0xe5, 0x3b, 0x16, 0xe8, 0xee, 0x0d, 0xed, 0x0c, 0xef, 0x0c, 0xe9, 0xe7,
  0xee, 0xbd, 0x14, 0x00, 0xea, 0x0c, 0x37, 0x10, 0xe9, 0x02, 0x1e, 0x11,
  0xff, 0xd6, 0x1a, 0xfe, 0xfe, 0x14, 0xec, 0xf1, 0x0c, 0x2b, 0x37, 0xe2,
  0xe9, 0xf4, 0xf3, 0x09, 0x16, 0x04, 0x09, 0xfc, 0x09, 0x01, 0x00, 0x81,
  0xfe, 0xfa, 0xf9, 0xf6, 0xb3, 0xf4, 0xe2, 0xd5, 0x0a, 0x03, 0xfb, 0xff,
  0x05, 0xe1, 0x81, 0x0b, 0xe2, 0x04, 0xf2, 0xfe, 0x05, 0xed, 0xfb, 0xe9,
  0x3a, 0xdd, 0x2d, 0xf2, 0x20, 0xb3, 0x18, 0x1f, 0xfa, 0x05, 0xfd, 0x08,
  0xf7, 0xdf, 0xb3, 0xe3, 0xf5, 0xfe, 0x02, 0xf1, 0x06, 0xb9, 0xfd, 0x02,
  0xe9, 0xe1, 0xfc, 0xfc, 0x0e, 0x24, 0x09, 0xf6, 0x7f, 0xeb, 0x10, 0xe9,
  0xfa, 0x2a, 0xd2, 0x0d, 0x07, 0xfd, 0xaa, 0x03, 0x07, 0x0d, 0xda, 0xfe,
  0x00, 0x01, 0xf6, 0x22, 0xfb, 0x26, 0x20, 0xef, 0x10, 0xd0, 0xe0, 0x7f,
  0xff, 0xf5, 0xf7, 0xd9, 0x26, 0x0b, 0x19, 0x28, 0x0e, 0x05, 0x00, 0xe0,
  0x11, 0xfe, 0xc9, 0x0c, 0x89, 0x3e, 0x05, 0x73, 0x81, 0xf8, 0x00, 0xcd,
  0x13, 0xdf, 0xe8, 0xe7, 0xe3, 0xb4, 0x68, 0xe7, 0xa7, 0xc3, 0xed, 0xc2,
  0x31, 0xe5, 0x98, 0x36, 0x62, 0xcd, 0x9e, 0xf6, 0xa8, 0x18, 0x56, 0xe6,
  0xee, 0x01, 0xfd, 0x2e, 0x05, 0x04, 0x02, 0xf5, 0x0c, 0x36, 0x81, 0xfe,
  0x0e, 0xfa, 0x13, 0x2f, 0x1b, 0x0d, 0x0d, 0xfe, 0x18, 0x14, 0x42, 0xf0,
  0x39, 0x02, 0xf8, 0x97, 0x07, 0x0e, 0xbf, 0x0a, 0x10, 0x07, 0xf9, 0x00,
  0xe5, 0x30, 0x13, 0x4c, 0xf8, 0x0b, 0xf1, 0x26, 0x12, 0x2a, 0xee, 0x09,
  0xec, 0xfe, 0x04, 0x18, 0xea, 0x05, 0x12, 0x00, 0x14, 0xe9, 0x0e, 0x81,
  0xf4, 0x0e, 0xfe, 0x0e, 0x05, 0x0e, 0xf4, 0xff, 0xfc, 0xf3, 0x07, 0x14,
  0x04, 0x08, 0xeb, 0x0b, 0x04, 0x81, 0x01, 0xf7, 0x03, 0x08, 0x04, 0x11,
  0x15, 0xe9, 0xe7, 0xe0, 0xf8, 0xf6, 0xfa, 0x03, 0xf9, 0x05, 0xe5, 0xfa,
  0xee, 0xde, 0xff, 0xff, 0x04, 0x00, 0x00, 0x00, 0x00, 0x01, 0x00, 0x00,
  0x91, 0xfe, 0xff, 0xff, 0x03, 0xff, 0xff, 0xff, 0x37, 0xff, 0xff, 0xff,
  0x84, 0xfe, 0xff, 0xff, 0xb3, 0xfe, 0xff, 0xff, 0xcf, 0xff, 0xff, 0xff,
  0xd1, 0xfd, 0xff, 0xff, 0xf3, 0xff, 0xff, 0xff, 0xe1, 0xfe, 0xff, 0xff,
  0xb9, 0x00, 0x00, 0x00, 0x60, 0xfe, 0xff, 0xff, 0xe2, 0xfe, 0xff, 0xff,
  0x1b, 0xff, 0xff, 0xff, 0xc3, 0xff, 0xff, 0xff, 0x5a, 0xff, 0xff, 0xff,
  0xd4, 0xfe, 0xff, 0xff, 0x07, 0x01, 0x00, 0x00, 0xd0, 0xff, 0xff, 0xff,
  0x7d, 0xff, 0xff, 0xff, 0x3d, 0xff, 0xff, 0xff, 0xea, 0xff, 0xff, 0xff,
  0xb4, 0xff, 0xff, 0xff, 0x26, 0x00, 0x00, 0x00, 0x7c, 0xff, 0xff, 0xff,
  0x29, 0x00, 0x00, 0x00, 0xea, 0xfd, 0xff, 0xff, 0x47, 0xff, 0xff, 0xff,
  0x86, 0xff, 0xff, 0xff, 0x66, 0xff, 0xff, 0xff, 0x94, 0xfe, 0xff, 0xff,
  0x74, 0xfe, 0xff, 0xff, 0x2b, 0x00, 0x00, 0x00, 0x2a, 0xff, 0xff, 0xff,
  0x25, 0xff, 0xff, 0xff, 0x5a, 0xfe, 0xff, 0xff, 0x24, 0xfe, 0xff, 0xff,
  0xbf, 0xff, 0xff, 0xff, 0xe2, 0xff, 0xff, 0xff, 0xfd, 0xfd, 0xff, 0xff,
  0x2f, 0x00, 0x00, 0x00, 0xa5, 0xff, 0xff, 0xff, 0x8a, 0xff, 0xff, 0xff,
  0xe3, 0xff, 0xff, 0xff, 0x36, 0x01, 0x00, 0x00, 0xcc, 0xfe, 0xff, 0xff,
  0xd3, 0xff, 0xff, 0xff, 0xcb, 0x00, 0x00, 0x00, 0xd9, 0xff, 0xff, 0xff,
  0x9a, 0xfd, 0xff, 0xff, 0x18, 0xfe, 0xff, 0xff, 0xaf, 0x00, 0x00, 0x00,
  0x01, 0x01, 0x00, 0x00, 0xcc, 0xff, 0xff, 0xff, 0xc5, 0xff, 0xff, 0xff,
  0xf5, 0xff, 0xff, 0xff, 0xa2, 0xfe, 0xff, 0xff, 0x22, 0xff, 0xff, 0xff,
  0xa9, 0xff, 0xff, 0xff, 0xea, 0xff, 0xff, 0xff, 0x6b, 0xff, 0xff, 0xff,
  0xeb, 0xfd, 0xff, 0xff, 0x67, 0x00, 0x00, 0x00, 0x1d, 0xff, 0xff, 0xff,
  0x24, 0x00, 0x00, 0x00, 0xfa, 0xdf, 0xff, 0xff, 0x04, 0x00, 0x00, 0x00,
  0x00, 0x06, 0x00, 0x00, 0x01, 0xff, 0x14, 0x02, 0xff, 0xe0, 0xff, 0xfe,
  0x05, 0xf1, 0xfd, 0x19, 0x00, 0x0d, 0x07, 0xf7, 0x13, 0x04, 0x03, 0x00,
  0x04, 0x00, 0xff, 0xeb, 0x3e, 0x03, 0x28, 0xe9, 0x04, 0x04, 0x02, 0xc8,
  0xfe, 0x06, 0x0e, 0x01, 0x07, 0x0e, 0x04, 0x1b, 0xec, 0x00, 0x06, 0x00,
  0xfe, 0x00, 0x08, 0x05, 0xff, 0x01, 0x00, 0xf3, 0x03, 0xfd, 0x0a, 0x01,
  0xfc, 0xe5, 0xe1, 0xf8, 0xef, 0xee, 0x0a, 0x1a, 0x00, 0x0f, 0x01, 0xfc,
  0xf6, 0xf1, 0xfe, 0xc4, 0xea, 0xf0, 0xf3, 0x03, 0x02, 0xfd, 0xef, 0x0c,
  0xf3, 0xed, 0x06, 0x02, 0x25, 0x04, 0x2a, 0xfc, 0xe3, 0xfe, 0x09, 0xce,
  0x0f, 0x05, 0x17, 0xc2, 0xff, 0x0d, 0x25, 0x00, 0xb8, 0xa1, 0xfa, 0xfc,
  0x03, 0xf9, 0xee, 0x47, 0xfd, 0x02, 0x0c, 0xef, 0x5b, 0x03, 0xfe, 0xc7,
  0xfe, 0xfb, 0xf4, 0xfd, 0xd3, 0x01, 0x10, 0x02, 0xee, 0xe6, 0x08, 0x18,
  0xfe, 0x03, 0xee, 0xf1, 0xdd, 0xfa, 0x01, 0x3e, 0xe7, 0x05, 0xf6, 0x0a,
  0xfb, 0x02, 0xf5, 0x01, 0x05, 0xf5, 0xe2, 0x03, 0x13, 0xff, 0x0b, 0xff,
  0x03, 0xfe, 0xef, 0xfe, 0xf3, 0x05, 0xfb, 0x01, 0x00, 0xfc, 0xe0, 0x03,
  0x02, 0x10, 0xff, 0xf9, 0xfe, 0xf7, 0xff, 0xfd, 0x03, 0x04, 0x03, 0x01,
  0xee, 0xfe, 0x0c, 0x11, 0xf2, 0x14, 0xf5, 0xfc, 0xdb, 0xeb, 0xfb, 0x00,
  0x10, 0x00, 0xfc, 0x02, 0x00, 0x12, 0xf9, 0x01, 0x17, 0x00, 0xfd, 0xda,
  0xe3, 0x00, 0xfa, 0x01, 0xf6, 0x01, 0xf2, 0xfe, 0xfd, 0x02, 0x00, 0xff,
  0x18, 0xf9, 0xff, 0x00, 0xfe, 0x00, 0x10, 0x1b, 0x03, 0x15, 0x08, 0xf6,
  0xfd, 0x09, 0xe9, 0x00, 0x06, 0x10, 0x0f, 0xff, 0x01, 0xf0, 0xfe, 0x02,
  0xff, 0xfe, 0xfc, 0x01, 0xf0, 0x02, 0x10, 0x21, 0xfb, 0x18, 0x06, 0xf8,
  0xf0, 0xf9, 0xd6, 0x01, 0x09, 0x02, 0xf4, 0x0d, 0xfc, 0x0f, 0x00, 0xff,
  0x0b, 0x03, 0xfc, 0xec, 0x07, 0x00, 0x09, 0xfc, 0xfa, 0x01, 0x02, 0xff,
  0x03, 0xff, 0xff, 0xff, 0xf2, 0xf6, 0xf3, 0x02, 0xfc, 0xfd, 0xee, 0x08,
  0x0a, 0x02, 0x02, 0xf9, 0x0b, 0xff, 0x02, 0xfe, 0xff, 0x05, 0xf1, 0x01,
  0x00, 0xfc, 0xff, 0xfa, 0x03, 0xff, 0xf6, 0x0b, 0xea, 0x00, 0x08, 0x01,
  0x0a, 0x18, 0xfc, 0xd5, 0x04, 0x02, 0xfb, 0x01, 0xec, 0xff, 0xfd, 0xff,
  0x05, 0x09, 0x01, 0x03, 0x0d, 0x02, 0x04, 0xe3, 0xfc, 0x00, 0x02, 0x03,
  0xf6, 0xff, 0xff, 0xfd, 0xfa, 0x00, 0x03, 0x02, 0xf5, 0xfa, 0xfa, 0x02,
  0x00, 0xfb, 0xe5, 0x05, 0x0b, 0x00, 0x02, 0xf0, 0x15, 0x00, 0x07, 0x00,
  0xfd, 0xfd, 0xfc, 0x08, 0x00, 0xf7, 0xff, 0x03, 0x02, 0x04, 0xf2, 0x06,
  0xed, 0xff, 0x05, 0x00, 0x08, 0x1f, 0xfe, 0xf6, 0xfe, 0x00, 0xfe, 0x04,
  0xfd, 0x00, 0xfc, 0xfa, 0x00, 0x04, 0x02, 0x0d, 0x09, 0x03, 0xf4, 0xb9,
  0x02, 0xff, 0x00, 0x0e, 0xdc, 0xfa, 0xf7, 0x01, 0xfa, 0x02, 0x01, 0xfe,
  0xee, 0xf6, 0xf3, 0x02, 0xfe, 0xfe, 0xda, 0x03, 0x07, 0x0b, 0xee, 0xf3,
  0x1d, 0xff, 0x07, 0x00, 0xfe, 0xf0, 0xf7, 0x01, 0x02, 0xf7, 0xff, 0x01,
  0x01, 0x00, 0xf4, 0x07, 0xf0, 0x00, 0x06, 0x02, 0x06, 0x0c, 0xfe, 0xfc,
  0xfc, 0xf8, 0xfe, 0x07, 0xff, 0xfd, 0x02, 0xfb, 0x02, 0x06, 0x02, 0x0a,
  0x07, 0x01, 0xf8, 0xd3, 0x01, 0xff, 0x02, 0x05, 0xde, 0xfb, 0xf9, 0x01,
  0xfa, 0x01, 0x04, 0x02, 0xf4, 0xf1, 0xf3, 0xff, 0xfc, 0x04, 0xdf, 0x03,
  0x08, 0x09, 0xef, 0xf0, 0x17, 0x02, 0x04, 0xfd, 0xfe, 0xf2, 0xf5, 0x02,
  0x02, 0xfc, 0x00, 0x09, 0xfe, 0x01, 0xf7, 0x07, 0xef, 0x00, 0x08, 0x04,
  0x08, 0x0b, 0xff, 0xf9, 0xff, 0xf9, 0xff, 0x04, 0x00, 0xff, 0x04, 0xfe,
  0xfe, 0x09, 0x04, 0x0b, 0x03, 0x03, 0xf4, 0xd4, 0x03, 0xff, 0x00, 0x0a,
  0xd6, 0xfb, 0xf8, 0xfd, 0xf9, 0x03, 0x01, 0xfe, 0xf3, 0xf4, 0xf5, 0x01,
  0xff, 0x01, 0xdf, 0x03, 0x08, 0x0a, 0xf1, 0xf0, 0x18, 0x02, 0xff, 0x00,
  0xfd, 0xf0, 0xf6, 0x03, 0x03, 0xf7, 0xff, 0x0d, 0xfb, 0x02, 0xf7, 0x05,
  0xf0, 0x02, 0x0a, 0x05, 0x0a, 0x06, 0xfe, 0xfd, 0xff, 0xf6, 0xff, 0x04,
  0xfe, 0xfc, 0x03, 0xff, 0xfe, 0x04, 0x04, 0x0c, 0x07, 0x03, 0xfa, 0xe8,
  0x04, 0xff, 0x02, 0x09, 0xd5, 0xfb, 0xf9, 0xfc, 0xf9, 0x01, 0x02, 0xfe,
  0xf1, 0xf4, 0xf6, 0x00, 0xfd, 0x00, 0xdd, 0x02, 0x06, 0x0a, 0xec, 0xf2,
  0x1a, 0x03, 0x04, 0xfc, 0xfd, 0xf3, 0xf7, 0x01, 0x01, 0x02, 0xff, 0x09,
  0x00, 0x02, 0xf7, 0x06, 0xef, 0x01, 0x08, 0x04, 0x08, 0x03, 0xfe, 0xfb,
  0xfe, 0xfb, 0xfe, 0x04, 0xff, 0xfc, 0x02, 0xfb, 0x00, 0x09, 0x02, 0x06,
  0x07, 0x04, 0xff, 0xdf, 0x03, 0x00, 0x01, 0x07, 0xd3, 0xf9, 0xfb, 0xfc,
  0xf9, 0x02, 0x01, 0x03, 0xf2, 0xf1, 0xf8, 0x02, 0xff, 0x02, 0xde, 0x02,
  0x08, 0x05, 0xe9, 0xf2, 0x18, 0x05, 0x06, 0xfc, 0xfe, 0xee, 0xfa, 0x04,
  0x02, 0xfd, 0xfe, 0x08, 0x00, 0x02, 0xf6, 0x06, 0xed, 0x02, 0x07, 0x04,
  0x0a, 0x09, 0x00, 0x00, 0xfe, 0xf9, 0xff, 0x05, 0xfc, 0xfb, 0x02, 0xff,
  0x00, 0x07, 0x04, 0x0f, 0x04, 0x03, 0x02, 0xe7, 0x02, 0xff, 0xff, 0x05,
  0xd5, 0xfa, 0xf8, 0xfb, 0xf7, 0x01, 0x05, 0xff, 0xef, 0xf6, 0xfa, 0x00,
  0xfc, 0xff, 0xde, 0x03, 0x09, 0x06, 0xea, 0xef, 0x1f, 0x05, 0x07, 0xfc,
  0xfe, 0xf6, 0xf5, 0x02, 0x02, 0x06, 0xfe, 0x0a, 0xfe, 0x04, 0xf9, 0x07,
  0xef, 0xfc, 0x06, 0x03, 0x0a, 0x09, 0xfe, 0xf9, 0x00, 0xf7, 0xfe, 0x04,
  0xfe, 0xfc, 0x03, 0xff, 0xfe, 0x0a, 0x03, 0x0e, 0x06, 0x01, 0xfd, 0xe2,
  0x04, 0xff, 0x02, 0x0a, 0xd7, 0xfb, 0xf9, 0xfa, 0xf8, 0x02, 0x03, 0x01,
  0xe8, 0xf3, 0xf4, 0x01, 0xfe, 0x03, 0xe0, 0x02, 0x07, 0x06, 0xea, 0xf0,
  0x16, 0x04, 0x03, 0xff, 0xfe, 0xf9, 0xf6, 0x02, 0x02, 0x03, 0xfe, 0x0c,
  0xff, 0x03, 0xf7, 0x06, 0xef, 0xff, 0x04, 0x03, 0x09, 0x0d, 0xfd, 0xf7,
  0xfe, 0xf8, 0xfe, 0x05, 0x00, 0xfc, 0x02, 0x02, 0xfd, 0x09, 0x05, 0x0f,
  0x07, 0x04, 0x03, 0xdd, 0x05, 0xfe, 0x01, 0x06, 0xd6, 0xfa, 0xf8, 0xf9,
  0xf7, 0x02, 0x04, 0x02, 0xea, 0xee, 0xf6, 0x00, 0xff, 0x02, 0xdf, 0x02,
  0x06, 0x09, 0xe4, 0xf0, 0x1c, 0x04, 0x05, 0x01, 0xfe, 0xf7, 0xf4, 0x03,
  0x01, 0x07, 0xfe, 0x04, 0xfe, 0x05, 0xf7, 0x04, 0xf4, 0xfc, 0x03, 0x03,
  0x0b, 0x07, 0xfe, 0xfc, 0xff, 0xf8, 0x00, 0x07, 0x00, 0xff, 0x02, 0xfe,
  0xff, 0x07, 0x03, 0x09, 0x0b, 0x04, 0x05, 0xcf, 0x05, 0xff, 0x02, 0x0a,
  0xd9, 0xf8, 0xf9, 0xf9, 0xf7, 0x02, 0x04, 0xff, 0xde, 0xf5, 0xf9, 0x00,
  0x00, 0x02, 0xd6, 0x02, 0x05, 0x06, 0xe5, 0xf0, 0x1e, 0x04, 0x01, 0xfe,
  0xfe, 0xfa, 0xf5, 0x05, 0x02, 0x00, 0xfe, 0x10, 0x04, 0x02, 0xf5, 0x04,
  0xea, 0x01, 0x02, 0x05, 0x09, 0x07, 0x01, 0x00, 0xff, 0xf5, 0xfe, 0x06,
  0xfe, 0xfe, 0x02, 0x01, 0x01, 0x0a, 0x05, 0x0e, 0x0b, 0x02, 0x08, 0xe2,
  0xfe, 0xff, 0x00, 0x06, 0xd5, 0xf8, 0xfa, 0xfa, 0xf5, 0x02, 0x04, 0x02,
  0xd8, 0xf2, 0xfa, 0xfd, 0x00, 0xff, 0xd4, 0x01, 0x06, 0x07, 0xe7, 0xf2,
  0x1d, 0x05, 0x02, 0x00, 0xfe, 0xfe, 0xf5, 0x05, 0x01, 0xfd, 0xff, 0x0c,
  0x01, 0x04, 0xf9, 0x03, 0xf2, 0xff, 0x02, 0x02, 0x09, 0x08, 0x01, 0xfb,
  0xff, 0xf2, 0xfe, 0x06, 0xfd, 0xfd, 0x01, 0x02, 0x01, 0x0c, 0x04, 0x0c,
  0x06, 0x04, 0x06, 0xf5, 0xfe, 0x00, 0xfc, 0x08, 0xd5, 0xfa, 0xf8, 0xf8,
  0xf6, 0x01, 0x04, 0x00, 0xe6, 0xf0, 0xfa, 0xfe, 0x01, 0x02, 0xd8, 0x05,
  0x02, 0x0c, 0xe6, 0xf1, 0x1d, 0x04, 0xfe, 0x02, 0xff, 0xfd, 0xf7, 0x04,
  0x01, 0x07, 0x00, 0x0c, 0xfe, 0x06, 0xf6, 0x04, 0xee, 0x00, 0x02, 0x03,
  0x08, 0x06, 0xfe, 0xfd, 0x00, 0xf5, 0xfb, 0x06, 0xfe, 0xfe, 0x00, 0xff,
  0x02, 0x0c, 0x01, 0x0b, 0x11, 0x04, 0x08, 0xe3, 0xfc, 0x00, 0xfd, 0x04,
  0xd4, 0xfa, 0xfa, 0xf8, 0xf5, 0x01, 0x03, 0x00, 0xe2, 0xf4, 0xf9, 0x01,
  0x00, 0x01, 0xdc, 0x03, 0x07, 0x0b, 0xe6, 0xf3, 0x1b, 0x03, 0x02, 0xff,
  0xff, 0xfd, 0xf6, 0x04, 0x00, 0x07, 0xff, 0x0f, 0x02, 0x05, 0xfa, 0x06,
  0xec, 0x01, 0x02, 0x04, 0x09, 0x07, 0x00, 0xf5, 0xfe, 0xf6, 0xfd, 0x06,
  0xff, 0xfd, 0xff, 0x03, 0x02, 0x0c, 0x01, 0x08, 0x0d, 0x02, 0x0c, 0xdb,
  0xfb, 0x01, 0xfa, 0x04, 0xd4, 0xfa, 0xfb, 0xf8, 0xf6, 0x02, 0x05, 0xfc,
  0xe8, 0xf4, 0xfe, 0x01, 0x02, 0xfe, 0xe6, 0xfc, 0x06, 0x06, 0xea, 0xf6,
  0x1d, 0x01, 0x01, 0x03, 0xfe, 0xfc, 0xf4, 0x05, 0x02, 0xfe, 0xfe, 0x0c,
  0x00, 0x02, 0xf9, 0x08, 0xec, 0xfd, 0x02, 0x02, 0x06, 0x08, 0x00, 0xf8,
  0x00, 0xf8, 0xfb, 0x09, 0x04, 0xfd, 0x01, 0x03, 0x01, 0x09, 0x00, 0x07,
  0x0f, 0x03, 0x07, 0xd4, 0xfa, 0x01, 0xfa, 0x08, 0xcc, 0xf9, 0xfd, 0xfa,
  0xf4, 0x00, 0x04, 0x03, 0xf4, 0xf1, 0xfe, 0x01, 0x02, 0xff, 0xf4, 0xf8,
  0x03, 0x08, 0xf2, 0xf4, 0x17, 0x01, 0xfe, 0xff, 0x00, 0xfe, 0xf4, 0x00,
  0x03, 0xfc, 0xfe, 0x0e, 0xfe, 0x02, 0xfa, 0x05, 0xe9, 0xfe, 0x01, 0x00,
  0xfe, 0xff, 0xff, 0xf9, 0xfd, 0xf7, 0xfc, 0x04, 0x07, 0xff, 0x00, 0x00,
  0x02, 0x01, 0xff, 0x07, 0x08, 0x00, 0xf9, 0x0e, 0x2d, 0x00, 0xfe, 0x03,
  0xe8, 0xfd, 0xfe, 0xfe, 0xf8, 0xfe, 0x06, 0xff, 0xf6, 0x0a, 0xfd, 0xfe,
  0x01, 0x02, 0x00, 0x01, 0x06, 0x07, 0xf3, 0xf2, 0x0c, 0xff, 0xfd, 0x05,
  0x00, 0x01, 0xf3, 0xff, 0x04, 0xf8, 0xfe, 0x0d, 0x03, 0x02, 0xff, 0x04,
  0x00, 0x01, 0x03, 0x02, 0x07, 0xfd, 0xff, 0xf9, 0x00, 0xf7, 0xf6, 0x03,
  0x0a, 0xff, 0xfe, 0x01, 0xff, 0xfe, 0x00, 0x0a, 0x05, 0x01, 0x01, 0xc6,
  0x20, 0x00, 0x00, 0x05, 0xf2, 0xf9, 0xfb, 0x02, 0xf6, 0x02, 0x09, 0x00,
  0xf7, 0xe5, 0x04, 0xff, 0x05, 0xfd, 0xf5, 0x00, 0xdd, 0x03, 0x04, 0x06,
  0x01, 0xff, 0xf7, 0x03, 0xfe, 0xf6, 0xfa, 0x06, 0x02, 0xf1, 0x03, 0x0c,
  0x00, 0xfd, 0xf9, 0x04, 0xf8, 0x00, 0x03, 0x00, 0x04, 0xf9, 0x02, 0xe7,
  0x02, 0xf5, 0xf8, 0x02, 0x03, 0x00, 0xfb, 0x02, 0x01, 0x03, 0xff, 0x15,
  0x00, 0x01, 0x06, 0xee, 0xfe, 0xf6, 0xfa, 0xfe, 0xf8, 0xf7, 0x11, 0x02,
  0xfd, 0x09, 0xf7, 0xfe, 0xfd, 0xfb, 0x06, 0x01, 0x0c, 0xfe, 0x04, 0x02,
  0xfe, 0x06, 0xff, 0x0f, 0x04, 0x00, 0x00, 0x00, 0xf6, 0xf5, 0xff, 0xf4,
  0x08, 0xfd, 0x07, 0xc5, 0x00, 0xfe, 0xef, 0xf2, 0xf5, 0x00, 0x00, 0xf8,
  0x0d, 0x00, 0xff, 0x04, 0x01, 0xa8, 0xfc, 0x02, 0x00, 0x1f, 0xfe, 0x01,
  0xfd, 0x07, 0xff, 0xfc, 0xfe, 0x03, 0x02, 0xeb, 0xff, 0x2b, 0xfb, 0xf9,
  0xf6, 0xfe, 0x17, 0x03, 0xef, 0x0e, 0xf5, 0xff, 0x00, 0x7f, 0x0b, 0x03,
  0x00, 0x01, 0x00, 0x05, 0xf9, 0xfb, 0x00, 0x00, 0x08, 0xff, 0xf4, 0xff,
  0xf3, 0x00, 0x04, 0xfa, 0x01, 0xff, 0x07, 0xf6, 0xfe, 0x00, 0xf2, 0x01,
  0x02, 0x01, 0x0a, 0xd1, 0x0c, 0x01, 0xff, 0xff, 0x02, 0x17, 0x44, 0x00,
  0xfe, 0x00, 0x00, 0xff, 0x06, 0xe6, 0xff, 0xff, 0x04, 0x00, 0x00, 0x00,
  0x04, 0x00, 0x00, 0x00, 0xae, 0xfc, 0xff, 0xff, 0x16, 0xe6, 0xff, 0xff,
  0x04, 0x00, 0x00, 0x00, 0x00, 0x18, 0x00, 0x00, 0x00, 0xfd, 0xf9, 0x02,
  0x00, 0x05, 0xff, 0xef, 0xfc, 0x0b, 0xfe, 0xff, 0x00, 0xfc, 0xf1, 0xfa,
  0x01, 0xf8, 0xfe, 0x00, 0xf4, 0x00, 0x03, 0x00, 0x06, 0x00, 0x08, 0xfb,
  0xfb, 0x16, 0x03, 0xf8, 0x04, 0xfe, 0xfc, 0xff, 0x00, 0xf4, 0xfe, 0xf9,
  0x01, 0xfe, 0xfe, 0x01, 0xff, 0xff, 0x01, 0x04, 0xfe, 0xff, 0x02, 0xed,
  0xfe, 0x00, 0x11, 0x01, 0xf3, 0x07, 0x00, 0x00, 0xfd, 0x03, 0xff, 0xe3,
  0x00, 0xff, 0xfd, 0xf9, 0x02, 0xf7, 0xff, 0xff, 0xf9, 0x0d, 0x01, 0x07,
  0x00, 0x06, 0x0d, 0xe8, 0x09, 0xf1, 0xfd, 0xff, 0xf4, 0xfe, 0x0a, 0x01,
  0x21, 0xff, 0x06, 0x2f, 0x06, 0x01, 0x0e, 0xfa, 0x00, 0xf7, 0x02, 0x01,
  0xdb, 0x09, 0xfc, 0xf6, 0x01, 0xfc, 0x03, 0xe1, 0x01, 0x08, 0x06, 0xfc,
  0xf5, 0x00, 0x01, 0xf2, 0x05, 0xfe, 0x06, 0xfe, 0x04, 0x3e, 0x05, 0xfc,
  0x07, 0x0d, 0x01, 0xf5, 0x00, 0x05, 0x05, 0x03, 0xff, 0xfa, 0x00, 0x0a,
  0x0e, 0x06, 0xff, 0x02, 0x00, 0x00, 0xcb, 0xff, 0xfb, 0xfb, 0x04, 0xff,
  0xf9, 0xfd, 0x02, 0xfe, 0xff, 0x00, 0x07, 0x04, 0xef, 0xfd, 0xfd, 0xfe,
  0x00, 0xfe, 0x18, 0x01, 0x01, 0xf9, 0x06, 0xfe, 0x01, 0xfe, 0x03, 0x00,
  0xff, 0x01, 0x00, 0x01, 0x0c, 0xff, 0x03, 0x08, 0xf7, 0x09, 0xfc, 0x00,
  0x07, 0x15, 0xfd, 0xff, 0x03, 0xff, 0xfe, 0xfd, 0xff, 0x06, 0xfb, 0x05,
  0x00, 0x00, 0x00, 0xf2, 0x0e, 0x00, 0xfd, 0x03, 0xff, 0xff, 0xd7, 0xfe,
  0xfc, 0x03, 0xfe, 0x01, 0xfe, 0xfd, 0x03, 0xfe, 0x00, 0x00, 0x02, 0xef,
  0xf1, 0xf7, 0xfc, 0x08, 0x01, 0xfe, 0x0a, 0xff, 0x03, 0x05, 0x06, 0xfe,
  0xff, 0xfd, 0x01, 0xff, 0xff, 0x00, 0x00, 0xfe, 0x0a, 0x01, 0xfe, 0x0b,
  0xfb, 0xf1, 0x03, 0x04, 0xfe, 0x00, 0xe8, 0xff, 0x05, 0xfe, 0x00, 0xfc,
  0x00, 0x08, 0xfd, 0x00, 0x03, 0x00, 0xfb, 0xfb, 0xfc, 0x01, 0x00, 0x02,
  0x05, 0xfe, 0xf1, 0x01, 0xfc, 0x00, 0x00, 0x00, 0x0e, 0xff, 0x05, 0x01,
  0x00, 0x00, 0x00, 0xdf, 0xf3, 0xfc, 0xfd, 0x00, 0x05, 0x03, 0x00, 0x01,
  0x05, 0x01, 0x03, 0xff, 0x00, 0xfe, 0x05, 0x00, 0xff, 0x01, 0xfd, 0xfa,
  0x04, 0x00, 0xfe, 0x00, 0x03, 0xf7, 0x02, 0x01, 0xfd, 0x01, 0xfe, 0xff,
  0x14, 0x02, 0x01, 0xfc, 0x00, 0x03, 0xff, 0xfc, 0x09, 0x05, 0x00, 0xfb,
  0x02, 0x05, 0x02, 0x00, 0x01, 0x01, 0xed, 0x02, 0xfd, 0x00, 0x02, 0xff,
  0x05, 0xfe, 0x00, 0x04, 0x03, 0x00, 0x02, 0xf5, 0xf8, 0xf9, 0xfe, 0xff,
  0x03, 0x01, 0x02, 0xff, 0x05, 0xfd, 0x09, 0xfd, 0x01, 0xfe, 0x07, 0xfe,
  0x00, 0x05, 0xfd, 0xfa, 0x00, 0xff, 0xfe, 0xfd, 0xff, 0x04, 0x00, 0xff,
  0x00, 0xff, 0x01, 0x00, 0x15, 0x04, 0x01, 0x01, 0xff, 0x00, 0xff, 0xfe,
  0x02, 0x07, 0x00, 0xfc, 0xfd, 0x05, 0x03, 0xfe, 0x01, 0x02, 0xf4, 0x06,
  0xfe, 0x01, 0x02, 0x01, 0x07, 0xff, 0xfe, 0x01, 0x04, 0xff, 0x06, 0xe4,
  0xfc, 0xf2, 0x00, 0xfe, 0x06, 0x02, 0x02, 0xfe, 0x03, 0xf8, 0x01, 0x08,
  0x01, 0xff, 0x06, 0x01, 0x01, 0x04, 0xfd, 0xf4, 0xfd, 0x00, 0xfe, 0xfb,
  0xff, 0xfb, 0x01, 0xfe, 0x03, 0xf9, 0x04, 0x02, 0x0d, 0x06, 0x02, 0x02,
  0x00, 0x02, 0xff, 0x02, 0x04, 0x07, 0xff, 0xfc, 0xfe, 0x06, 0x02, 0xff,
  0x06, 0x00, 0xf6, 0x05, 0xfd, 0x03, 0x03, 0xff, 0x05, 0xfc, 0x01, 0x02,
  0x02, 0x00, 0x07, 0xea, 0xfd, 0xf5, 0xfe, 0xfe, 0x06, 0x02, 0x01, 0x00,
  0x04, 0xf9, 0x02, 0x05, 0x01, 0xfd, 0x08, 0xfc, 0x00, 0x03, 0xfc, 0xf6,
  0xfd, 0x01, 0xfb, 0xfa, 0xfe, 0xfd, 0x02, 0xfd, 0x02, 0xf9, 0x03, 0x00,
  0x08, 0x06, 0x02, 0x02, 0xff, 0x01, 0x00, 0x02, 0x02, 0x08, 0x02, 0xfd,
  0xff, 0x07, 0x02, 0x00, 0x05, 0x01, 0xfa, 0x05, 0xfc, 0x03, 0x03, 0xfe,
  0x07, 0xff, 0x00, 0x06, 0x00, 0x02, 0x06, 0xe9, 0xfd, 0xf6, 0x01, 0xff,
  0x07, 0x02, 0x00, 0xff, 0x03, 0xf8, 0x00, 0x06, 0x02, 0x00, 0x09, 0xff,
  0x00, 0x02, 0xfa, 0xf6, 0xfd, 0xfe, 0xfb, 0xfa, 0xfe, 0xf7, 0x01, 0xfd,
  0x01, 0x01, 0x04, 0xff, 0x0a, 0x05, 0x01, 0x01, 0x00, 0xff, 0x01, 0xff,
  0x06, 0x0b, 0x01, 0xfc, 0xfc, 0x05, 0x01, 0x00, 0x03, 0xfe, 0xfd, 0x04,
  0xfb, 0x05, 0x03, 0xff, 0x04, 0x00, 0x03, 0x05, 0x02, 0x02, 0x07, 0xe3,
  0xfe, 0xf5, 0x01, 0x01, 0x03, 0x01, 0x01, 0x00, 0x01, 0xf8, 0x01, 0x05,
  0x04, 0xfe, 0x07, 0xfd, 0x00, 0x02, 0xfb, 0xf5, 0xff, 0x00, 0xfc, 0xf8,
  0xfb, 0xf9, 0x03, 0xff, 0x03, 0xfb, 0x05, 0x07, 0x08, 0x04, 0x01, 0x03,
  0x00, 0x02, 0x02, 0xfb, 0x02, 0x0a, 0x00, 0xfc, 0xfd, 0x05, 0x00, 0x01,
  0x07, 0xff, 0xfa, 0x02, 0xfa, 0x06, 0x03, 0x01, 0x07, 0x01, 0x03, 0x03,
  0x00, 0x00, 0x02, 0xe3, 0xfe, 0xf5, 0xfe, 0x02, 0x05, 0x01, 0x01, 0x00,
  0x03, 0xf8, 0x01, 0x05, 0x02, 0xfe, 0x08, 0xfe, 0xff, 0x01, 0xfa, 0xf6,
  0x00, 0x00, 0xfd, 0xfb, 0xfb, 0xfa, 0x02, 0xfd, 0x03, 0xf9, 0x05, 0x06,
  0x08, 0x03, 0xff, 0x04, 0xff, 0x01, 0x02, 0x02, 0x04, 0x0b, 0x00, 0xfc,
  0xfb, 0x05, 0xff, 0x00, 0x04, 0xff, 0xf8, 0x01, 0xfa, 0x04, 0x03, 0xff,
  0x05, 0x01, 0x07, 0x05, 0xfc, 0x00, 0x04, 0xe6, 0x01, 0xf7, 0xff, 0x03,
  0x06, 0x01, 0x00, 0x01, 0x04, 0xf6, 0x02, 0x04, 0x02, 0xfe, 0x08, 0xfd,
  0x02, 0x02, 0xfa, 0xf5, 0x00, 0x01, 0xfc, 0xfa, 0xfb, 0xfc, 0x02, 0xfe,
  0x05, 0xfa, 0x06, 0x07, 0x04, 0x03, 0xff, 0x01, 0x00, 0xfd, 0x00, 0x00,
  0x03, 0x0c, 0xfe, 0xfe, 0xfc, 0x05, 0x00, 0x02, 0x05, 0xfd, 0xf7, 0x01,
  0xfc, 0x04, 0x02, 0x01, 0x08, 0xff, 0x08, 0x05, 0xfd, 0x00, 0x05, 0xd8,
  0x00, 0xf8, 0xfe, 0x03, 0x0b, 0x00, 0x00, 0xfe, 0x03, 0xf8, 0x00, 0x03,
  0x02, 0xfe, 0x08, 0xfd, 0xff, 0x02, 0xfa, 0xf9, 0x01, 0x00, 0xfa, 0xfa,
  0xfe, 0xfc, 0x04, 0xfd, 0x04, 0xfa, 0x06, 0x0a, 0x06, 0x02, 0xfe, 0x01,
  0x01, 0xfd, 0x00, 0xff, 0x06, 0x08, 0x01, 0x00, 0xfc, 0x05, 0xfe, 0x01,
  0x08, 0xff, 0xf5, 0x00, 0xf9, 0x04, 0x04, 0x01, 0x0b, 0xfe, 0x08, 0x05,
  0xff, 0x01, 0x03, 0xdb, 0x01, 0xf6, 0xfe, 0xff, 0x0c, 0xfd, 0x01, 0xff,
  0x01, 0xf9, 0xff, 0x03, 0x03, 0xfd, 0x08, 0xfd, 0xff, 0x02, 0xfd, 0xf8,
  0x00, 0xfe, 0xfb, 0xfd, 0xfd, 0xfa, 0x00, 0xfe, 0x05, 0xf6, 0x05, 0x07,
  0x07, 0x05, 0xff, 0x01, 0x01, 0xfd, 0x01, 0xff, 0x02, 0x0a, 0xfd, 0x02,
  0xfb, 0x06, 0xfe, 0x03, 0x07, 0x01, 0xf7, 0x02, 0xfa, 0x06, 0x05, 0xff,
  0x0b, 0xfb, 0x09, 0x06, 0x00, 0x00, 0x04, 0xe1, 0x04, 0xf7, 0xfe, 0x01,
  0x09, 0xfe, 0x01, 0x02, 0x01, 0xf7, 0x00, 0x05, 0x05, 0xfd, 0x07, 0x01,
  0x00, 0xff, 0xfe, 0xf9, 0x01, 0xfe, 0xfc, 0xfc, 0xfd, 0xf9, 0x01, 0xfc,
  0x05, 0xf5, 0x03, 0x07, 0x04, 0x03, 0xfe, 0xff, 0x00, 0xfe, 0x01, 0x00,
  0x0d, 0x0b, 0xfe, 0x01, 0xfa, 0x07, 0xfe, 0x00, 0x06, 0x02, 0xfb, 0x00,
  0xf9, 0x06, 0x04, 0x00, 0x0d, 0xfc, 0x09, 0x04, 0x00, 0x00, 0x04, 0xe2,
  0xff, 0xf8, 0xff, 0x04, 0x08, 0xfc, 0x01, 0xff, 0x01, 0xf8, 0xfe, 0x06,
  0x04, 0xff, 0x08, 0x03, 0x00, 0x01, 0xfc, 0xfa, 0xff, 0xff, 0xfa, 0xf9,
  0xfc, 0xfb, 0x02, 0xfe, 0x05, 0xf8, 0x04, 0x07, 0x02, 0x02, 0xfe, 0x00,
  0x00, 0x01, 0x02, 0x00, 0x07, 0x0b, 0x00, 0x00, 0xfa, 0x04, 0xff, 0x01,
  0x05, 0x02, 0xfa, 0x00, 0xfd, 0x05, 0x04, 0xff, 0x0e, 0xfd, 0x0b, 0x05,
  0x00, 0x01, 0x06, 0xe2, 0x00, 0xfc, 0xfe, 0x02, 0x05, 0x01, 0x05, 0xfe,
  0x02, 0xf8, 0xfc, 0x05, 0x05, 0xfc, 0x07, 0xfd, 0xff, 0xff, 0xfd, 0xf9,
  0x00, 0xfd, 0xfc, 0xf7, 0xfc, 0xfa, 0x03, 0xfb, 0x03, 0xfe, 0x07, 0x07,
  0x03, 0x02, 0xff, 0x00, 0xfe, 0x04, 0x02, 0xfe, 0x09, 0x0a, 0x02, 0x00,
  0xfc, 0x02, 0x00, 0x01, 0x0a, 0xfe, 0xf9, 0x02, 0xfe, 0x04, 0x06, 0x01,
  0x0d, 0xfe, 0x0b, 0x09, 0x00, 0xff, 0x04, 0xdb, 0xfa, 0xf9, 0xfe, 0x00,
  0x04, 0x04, 0x03, 0xfe, 0x03, 0xfb, 0xfb, 0x06, 0x04, 0x00, 0x06, 0x01,
  0x01, 0xfe, 0xfe, 0xfa, 0xff, 0xff, 0xfc, 0xfa, 0xfc, 0xfd, 0x02, 0xfb,
  0x03, 0xfd, 0x03, 0x08, 0x02, 0x00, 0xff, 0xfe, 0xfe, 0xfd, 0x01, 0xf9,
  0x0e, 0x08, 0x01, 0xfe, 0xfb, 0xff, 0x01, 0x04, 0x06, 0xfd, 0xf9, 0x01,
  0xfd, 0x04, 0x03, 0xff, 0x09, 0xfe, 0x0a, 0x09, 0x01, 0x00, 0x04, 0xe7,
  0xfc, 0xf9, 0xff, 0x01, 0x04, 0x02, 0x01, 0xfd, 0x02, 0xfd, 0xfc, 0x05,
  0x03, 0xfc, 0x05, 0x08, 0x01, 0x00, 0xff, 0xfb, 0xff, 0xff, 0xfb, 0xf9,
  0xfd, 0xfd, 0x04, 0xfe, 0x01, 0xfc, 0x01, 0x06, 0xfe, 0x02, 0x00, 0xfe,
  0x00, 0xff, 0x03, 0xf7, 0x11, 0x07, 0x00, 0xff, 0xfb, 0x01, 0x03, 0x03,
  0x07, 0x00, 0xfa, 0x02, 0xff, 0x04, 0x04, 0x01, 0x01, 0xfd, 0x04, 0x09,
  0x00, 0xff, 0x01, 0xd7, 0xfa, 0xf8, 0xfc, 0x02, 0xfe, 0x03, 0x00, 0xff,
  0x01, 0xfc, 0xfd, 0x06, 0x03, 0xfe, 0x05, 0x02, 0x01, 0xfe, 0xff, 0xfd,
  0x02, 0x00, 0xfc, 0xfc, 0x00, 0xfc, 0x02, 0x00, 0x00, 0xf8, 0x06, 0x03,
  0x02, 0x02, 0x00, 0xfd, 0x00, 0xff, 0x03, 0xfb, 0x04, 0x04, 0x00, 0x13,
  0x0b, 0xff, 0x04, 0x05, 0xfd, 0xfe, 0xf5, 0x00, 0xff, 0x03, 0x03, 0xff,
  0x03, 0xfe, 0x06, 0x01, 0xfd, 0x01, 0x01, 0xe7, 0xfd, 0xfa, 0xfd, 0x03,
  0x00, 0x03, 0x07, 0x02, 0x01, 0x00, 0xf3, 0x03, 0x02, 0xff, 0x02, 0xfd,
  0xff, 0xfe, 0x01, 0xfc, 0x06, 0x00, 0xfe, 0xfd, 0xfc, 0xfe, 0x04, 0xff,
  0xff, 0xf3, 0x04, 0x00, 0xff, 0x01, 0xfe, 0xfb, 0xff, 0xf8, 0x03, 0xfa,
  0x04, 0x01, 0xfd, 0x0b, 0xfc, 0xfe, 0x06, 0xfd, 0xfd, 0x00, 0xed, 0x04,
  0xfd, 0x01, 0x04, 0xff, 0x02, 0xfa, 0x07, 0x03, 0x00, 0x00, 0x02, 0xf6,
  0x0c, 0xfd, 0xfe, 0xfb, 0x00, 0x00, 0x09, 0xff, 0x02, 0x03, 0xfa, 0x05,
  0x00, 0xfe, 0x00, 0xfc, 0x00, 0xff, 0x04, 0xfb, 0x04, 0x01, 0xff, 0xfc,
  0xfe, 0x01, 0x00, 0x02, 0x01, 0x09, 0x07, 0x01, 0x00, 0xff, 0x01, 0xfe,
  0x00, 0x08, 0x03, 0xfd, 0xff, 0x01, 0xf4, 0x18, 0x00, 0xfe, 0x0c, 0xfb,
  0xff, 0x01, 0xd0, 0x01, 0xff, 0x06, 0x02, 0x00, 0x04, 0xfb, 0x04, 0x00,
  0xfb, 0x00, 0x03, 0xf8, 0x00, 0x0a, 0x02, 0x02, 0x00, 0x01, 0xff, 0xff,
  0x04, 0x03, 0xf0, 0x09, 0xf9, 0xfd, 0x01, 0x03, 0x00, 0x00, 0x08, 0x00,
  0xfe, 0x01, 0xfe, 0x0f, 0x02, 0xfe, 0xfc, 0x02, 0x01, 0x0d, 0x09, 0xfa,
  0xff, 0xfb, 0x04, 0xff, 0xff, 0xf4, 0x02, 0x00, 0x00, 0x04, 0x00, 0xfe,
  0x04, 0xfa, 0x0b, 0xfe, 0x01, 0xff, 0xe9, 0xfe, 0x06, 0x09, 0xf2, 0xff,
  0x04, 0xfd, 0x00, 0x00, 0x00, 0x01, 0x00, 0xf7, 0xf7, 0x01, 0x00, 0xff,
  0xff, 0x00, 0xff, 0x00, 0x07, 0x01, 0xef, 0x09, 0xe1, 0xfd, 0xfe, 0x03,
  0x00, 0x00, 0x03, 0xfb, 0x01, 0x01, 0x01, 0xff, 0x06, 0xfe, 0xfe, 0x01,
  0x00, 0xf4, 0xe8, 0xfe, 0x01, 0xfc, 0x00, 0xfe, 0x00, 0xf9, 0x13, 0xf8,
  0x03, 0x0d, 0x00, 0x35, 0x21, 0xdb, 0xfc, 0xee, 0x01, 0xf0, 0xf1, 0x24,
  0xf8, 0x0f, 0x04, 0x00, 0x0d, 0x00, 0xe3, 0xf0, 0xb8, 0x00, 0xed, 0xc7,
  0x0e, 0xe3, 0x00, 0x25, 0xe4, 0xfb, 0x0c, 0xff, 0x17, 0xf7, 0x01, 0x11,
  0x43, 0xff, 0xe8, 0xff, 0xff, 0xe6, 0x01, 0xf7, 0xfb, 0xff, 0xff, 0xee,
  0x02, 0x00, 0xb3, 0xfe, 0x18, 0xb8, 0xd9, 0x08, 0x1c, 0xfe, 0x03, 0xa9,
  0xff, 0xdd, 0xf5, 0xf5, 0xf2, 0x3a, 0x00, 0x06, 0x13, 0xdd, 0x03, 0xf1,
  0xff, 0xe4, 0xd5, 0x21, 0xb4, 0x3c, 0x01, 0xff, 0xfb, 0x00, 0x96, 0xff,
  0xcf, 0xff, 0xcd, 0xeb, 0x11, 0xed, 0xf9, 0x0d, 0xd5, 0x0e, 0x24, 0x00,
  0x4e, 0x01, 0x05, 0x1b, 0xf6, 0x01, 0xf7, 0xfa, 0x00, 0xef, 0x18, 0xf1,
  0x0d, 0x01, 0xf2, 0xe4, 0x0c, 0xee, 0xce, 0x0c, 0xd7, 0xc0, 0xe5, 0x04,
  0xfe, 0xe1, 0xf5, 0xf1, 0x02, 0xc3, 0x0c, 0xaf, 0x05, 0x03, 0xff, 0xde,
  0x9b, 0xb8, 0x06, 0xf4, 0xf9, 0x03, 0x5d, 0xfc, 0xe9, 0x18, 0xea, 0x01,
  0x03, 0xf8, 0xf5, 0x0a, 0xe1, 0x00, 0xf5, 0x03, 0x26, 0xd5, 0xf5, 0x08,
  0x04, 0xff, 0xb9, 0x00, 0x1e, 0xef, 0xe9, 0x0b, 0x02, 0x02, 0xff, 0x04,
  0x00, 0xf7, 0x07, 0xf3, 0xd9, 0x00, 0xf0, 0x0f, 0xea, 0xe7, 0xf1, 0x1b,
  0xd1, 0x11, 0xf7, 0xff, 0x06, 0xd9, 0xf4, 0x21, 0xff, 0xc0, 0x07, 0xfd,
  0xff, 0x0b, 0x00, 0x24, 0xe9, 0xf4, 0x0e, 0xbf, 0xf4, 0xfd, 0x61, 0xfe,
  0x0f, 0xf1, 0x01, 0x00, 0xe9, 0xfb, 0xe0, 0x09, 0x02, 0xff, 0xda, 0x0d,
  0x10, 0xf3, 0xf9, 0x28, 0xfb, 0xe7, 0xd7, 0x00, 0xef, 0xda, 0xf1, 0x0a,
  0x00, 0x01, 0xfb, 0xf4, 0xfe, 0xfd, 0x09, 0xfc, 0xff, 0x00, 0xe2, 0x04,
  0xe3, 0xf6, 0xff, 0x18, 0x0e, 0xf2, 0xd8, 0x03, 0x19, 0xea, 0x03, 0x21,
  0x01, 0xe6, 0x01, 0x10, 0x10, 0x12, 0x02, 0x0a, 0x06, 0xeb, 0xfe, 0xf1,
  0xd4, 0x07, 0x1a, 0xfa, 0xf6, 0x03, 0xfd, 0x01, 0x02, 0xe8, 0xf8, 0xfa,
  0x0b, 0xfe, 0x06, 0x44, 0x05, 0xfd, 0x07, 0xfe, 0xf5, 0xf0, 0xf2, 0xff,
  0xef, 0xfc, 0xa0, 0x06, 0x02, 0xff, 0xe7, 0xf1, 0xff, 0xfe, 0x0d, 0x0a,
  0x0a, 0x00, 0xfd, 0x04, 0xf0, 0xe1, 0xfb, 0x03, 0x11, 0x03, 0xc0, 0xfc,
  0xee, 0xfd, 0xf2, 0x18, 0xfe, 0x09, 0xff, 0xfe, 0xeb, 0xee, 0x03, 0x0f,
  0x07, 0xa4, 0xfd, 0xfb, 0x0a, 0x19, 0x20, 0xf5, 0x0d, 0x01, 0xf0, 0x00,
  0xff, 0xf3, 0x08, 0xf9, 0x04, 0xfe, 0x11, 0x07, 0x06, 0x12, 0x08, 0x1b,
  0xff, 0xfb, 0xe2, 0xff, 0xed, 0x03, 0x84, 0x0a, 0x08, 0x01, 0xbe, 0xf1,
  0xfe, 0x09, 0x0d, 0x05, 0x04, 0xff, 0xf7, 0x09, 0xe8, 0xe2, 0xeb, 0x0c,
  0x0c, 0x02, 0xd8, 0xea, 0xf2, 0xf9, 0xf0, 0x07, 0xff, 0x0d, 0xef, 0xfa,
  0x0b, 0xe5, 0x02, 0x16, 0x06, 0xab, 0xff, 0xf8, 0x1a, 0x0f, 0x01, 0xe9,
  0x09, 0x04, 0xe1, 0x01, 0x06, 0xed, 0x0d, 0x08, 0x0f, 0xff, 0xfb, 0x12,
  0x05, 0x1f, 0xfd, 0xfc, 0xf3, 0xf0, 0xe6, 0x00, 0xef, 0x0b, 0xda, 0xf4,
  0x09, 0xff, 0xce, 0xfc, 0xff, 0x03, 0x0b, 0x15, 0x12, 0xfe, 0xfd, 0x12,
  0xd7, 0x04, 0xee, 0x14, 0xf6, 0x1c, 0xc4, 0xde, 0x0d, 0xfb, 0xea, 0x0c,
  0xff, 0x0d, 0xf2, 0xe8, 0x0a, 0xe4, 0x02, 0x0f, 0x06, 0xc0, 0xfc, 0xf9,
  0x10, 0x14, 0x0b, 0xf1, 0x08, 0xfe, 0xe7, 0x01, 0x03, 0x03, 0x17, 0x0c,
  0x1a, 0x00, 0xf3, 0x1f, 0x01, 0x1b, 0x01, 0x04, 0xf4, 0xed, 0xf4, 0x00,
  0xf4, 0x14, 0xd5, 0x08, 0x00, 0x02, 0x9c, 0xff, 0x00, 0x0e, 0x0a, 0x07,
  0x12, 0xff, 0x09, 0x0f, 0xed, 0x0d, 0xf1, 0x15, 0xf9, 0x17, 0xbb, 0xe2,
  0x02, 0x00, 0xea, 0x0a, 0x00, 0x0a, 0xea, 0xe5, 0x08, 0xd8, 0x02, 0x0d,
  0xfa, 0xad, 0x02, 0xce, 0x09, 0x10, 0x0c, 0xef, 0x0e, 0xf6, 0xd5, 0x01,
  0x14, 0xfb, 0x14, 0xfd, 0x17, 0xff, 0x04, 0x1c, 0x09, 0x07, 0xf1, 0xfb,
  0x02, 0xf4, 0xfe, 0x01, 0xfa, 0x20, 0xe6, 0xf7, 0xf8, 0x01, 0xb5, 0xfc,
  0xff, 0x13, 0x12, 0x0b, 0x14, 0xfe, 0xff, 0x16, 0xeb, 0x1f, 0xf3, 0x19,
  0xfe, 0xee, 0xb2, 0xe6, 0x01, 0x01, 0xee, 0x03, 0xff, 0x12, 0xef, 0xf4,
  0x06, 0xb8, 0x01, 0x10, 0x00, 0xa6, 0x0e, 0xcd, 0x1b, 0x1b, 0x06, 0xf4,
  0x0a, 0xdf, 0xde, 0x02, 0x21, 0xf8, 0x09, 0x09, 0x17, 0xff, 0xf0, 0x10,
  0x06, 0x05, 0xff, 0xfe, 0xf5, 0xfe, 0xf9, 0x01, 0xf7, 0x1d, 0xdb, 0x06,
  0xfd, 0x02, 0xbd, 0xfc, 0x00, 0x0e, 0x11, 0x09, 0x12, 0xff, 0xff, 0x11,
  0xef, 0x1f, 0xda, 0x15, 0xed, 0x0f, 0xa4, 0xc2, 0x03, 0x02, 0xec, 0x0b,
  0xff, 0xfe, 0xdf, 0x0d, 0xfe, 0xd0, 0x01, 0x11, 0xff, 0xd2, 0x0c, 0xca,
  0x02, 0x14, 0x05, 0x07, 0x10, 0xd4, 0xe7, 0x00, 0x19, 0xf4, 0xef, 0x00,
  0x1b, 0x01, 0x10, 0x0d, 0x0b, 0x09, 0x1b, 0xeb, 0x07, 0xfa, 0xfd, 0x00,
  0xec, 0x18, 0xdb, 0x02, 0xff, 0x03, 0xb7, 0x0d, 0xff, 0x11, 0x0e, 0x09,
  0x09, 0x00, 0x06, 0x06, 0xf5, 0x08, 0xec, 0x17, 0xcf, 0x26, 0xb3, 0xbc,
  0x0b, 0x0a, 0xf6, 0x04, 0xff, 0x04, 0xe4, 0xf4, 0x0d, 0xaf, 0xfb, 0x12,
  0xf9, 0xc8, 0x0c, 0xf0, 0x1d, 0x16, 0x14, 0x0b, 0x0e, 0xe7, 0xf6, 0x01,
  0x05, 0xf4, 0xf0, 0x07, 0x1e, 0xfe, 0x0d, 0x03, 0x05, 0x06, 0x0d, 0xf0,
  0x09, 0xeb, 0xfc, 0xff, 0xee, 0x14, 0xe4, 0xff, 0xfe, 0x00, 0xbc, 0xfa,
  0xff, 0x14, 0x0d, 0x0f, 0x04, 0x00, 0x01, 0x05, 0xed, 0x0c, 0xe0, 0x0d,
  0xbd, 0x17, 0xac, 0xa2, 0x15, 0x0a, 0xf9, 0x0b, 0xff, 0x06, 0xee, 0x02,
  0x11, 0xa2, 0x00, 0x13, 0xff, 0xc7, 0x0c, 0xba, 0x2a, 0x19, 0x15, 0x0a,
  0x0a, 0xe2, 0xef, 0xff, 0xf9, 0x00, 0xea, 0x06, 0x1b, 0x00, 0xf7, 0x34,
  0x0d, 0x09, 0x0f, 0xf4, 0xe8, 0xf6, 0xfa, 0x01, 0xee, 0x11, 0xf8, 0x09,
  0x01, 0x00, 0xae, 0x16, 0x01, 0x13, 0x0f, 0x06, 0x01, 0x00, 0x0d, 0x08,
  0xe6, 0x0a, 0xd5, 0x14, 0xc6, 0x0d, 0xb2, 0xa1, 0x15, 0x11, 0xf7, 0x11,
  0xfe, 0x0c, 0xe5, 0xf9, 0x04, 0xc1, 0x01, 0x0c, 0x04, 0xca, 0x0a, 0xec,
  0x18, 0x1a, 0x15, 0x0c, 0x12, 0xcf, 0xdd, 0x00, 0x09, 0x04, 0xcd, 0x06,
  0x17, 0x01, 0xfb, 0x2a, 0x0e, 0x0e, 0x11, 0x00, 0xcc, 0xff, 0xfe, 0x01,
  0xef, 0x12, 0x0b, 0x1e, 0x01, 0xfc, 0xb4, 0x07, 0x01, 0x0e, 0x0b, 0x0a,
  0x09, 0xff, 0x10, 0x05, 0xdf, 0x03, 0xea, 0x19, 0xd1, 0x16, 0xb7, 0xaf,
  0x12, 0x12, 0xfd, 0x0d, 0xff, 0x06, 0xe5, 0x06, 0x01, 0x96, 0x03, 0x0c,
  0x07, 0xd0, 0x0a, 0xb3, 0x1b, 0x17, 0x08, 0xfe, 0x0e, 0xbc, 0xdb, 0x00,
  0x10, 0x05, 0xd7, 0x09, 0x10, 0x00, 0xf8, 0x1b, 0x05, 0x15, 0x0f, 0xee,
  0xe6, 0x01, 0xf8, 0x00, 0xf3, 0x1d, 0x06, 0x0b, 0xfc, 0xff, 0xce, 0xe8,
  0xff, 0x15, 0x06, 0x03, 0xff, 0xfe, 0x04, 0x0e, 0xdc, 0x11, 0xf1, 0x1d,
  0xc6, 0x1a, 0xdb, 0xbc, 0x1f, 0x0d, 0xfd, 0x13, 0xfe, 0x0b, 0xe8, 0xfb,
  0xe6, 0xa3, 0x05, 0x0d, 0x0d, 0xc1, 0x15, 0xfc, 0x1e, 0x15, 0x01, 0x07,
  0x0c, 0xbf, 0xe1, 0x00, 0x07, 0x08, 0xc5, 0x0a, 0x17, 0xff, 0xf8, 0x18,
  0x03, 0x09, 0x0e, 0xe0, 0xdd, 0x03, 0xf5, 0x00, 0xf8, 0x17, 0x05, 0x03,
  0xf6, 0xfe, 0xc4, 0xd2, 0x00, 0x0e, 0x15, 0x01, 0xff, 0xfe, 0x08, 0x13,
  0xea, 0x0a, 0xf2, 0x19, 0xb9, 0x07, 0xaf, 0xb9, 0x1c, 0x0d, 0xfd, 0x11,
  0x00, 0x05, 0xe3, 0xfd, 0x03, 0x9e, 0x03, 0x0e, 0x12, 0xde, 0x0b, 0xfa,
  0x11, 0x15, 0x04, 0x0b, 0x0c, 0xcb, 0xe5, 0xff, 0xe1, 0x08, 0xaa, 0x09,
  0x1a, 0xff, 0xf0, 0x12, 0x03, 0xf6, 0x0d, 0xfa, 0xd7, 0xed, 0xd6, 0xff,
  0xf2, 0x0c, 0x1b, 0x08, 0xf6, 0xff, 0xcd, 0xe9, 0xff, 0x0a, 0x0d, 0x07,
  0x00, 0x00, 0x0d, 0x15, 0xee, 0x0c, 0xe6, 0x1a, 0xd8, 0xf1, 0xaa, 0xc1,
  0x1b, 0x0c, 0x02, 0x13, 0x00, 0xfb, 0xe5, 0x0a, 0xe8, 0xbb, 0x03, 0x0a,
  0x04, 0xf2, 0xfa, 0xe2, 0x0e, 0x15, 0x0c, 0xed, 0x0b, 0xe6, 0xdb, 0x00,
  0xf1, 0x07, 0xa6, 0x10, 0x14, 0x00, 0xeb, 0x27, 0x00, 0x02, 0x0c, 0xf4,
  0xee, 0xd9, 0xe6, 0xfe, 0xf2, 0x10, 0x12, 0x04, 0xfc, 0xfc, 0xd7, 0xdd,
  0xff, 0x11, 0x0d, 0x05, 0x06, 0x00, 0x0d, 0x16, 0xf4, 0x07, 0xeb, 0x1e,
  0xe6, 0x03, 0xe8, 0xc3, 0x1b, 0x13, 0x03, 0x0f, 0x01, 0xf4, 0xe9, 0x17,
  0xb8, 0xdd, 0x03, 0x0a, 0x09, 0xfc, 0x0b, 0xf6, 0x14, 0x0e, 0x14, 0xf5,
  0x09, 0xdb, 0xe2, 0x01, 0x0d, 0x0b, 0xbb, 0x0d, 0x0e, 0xff, 0xea, 0x25,
  0x09, 0x0a, 0x0c, 0xf2, 0xe5, 0xe6, 0xe9, 0x00, 0xfb, 0x05, 0x0b, 0xff,
  0xfa, 0xfd, 0xe7, 0xbd, 0x00, 0x09, 0x10, 0xf9, 0x06, 0x00, 0x06, 0x16,
  0xf3, 0x06, 0xdf, 0x1e, 0xe8, 0xfa, 0xf8, 0xbc, 0x12, 0x09, 0x00, 0x13,
  0x00, 0xe8, 0xed, 0x21, 0xaf, 0xea, 0x00, 0x06, 0x09, 0xee, 0xf5, 0xda,
  0x10, 0x0e, 0x13, 0xf4, 0x0d, 0xe1, 0xf3, 0x00, 0x05, 0xfe, 0xe1, 0x08,
  0x0d, 0x01, 0xf1, 0x3b, 0x0e, 0xf8, 0x17, 0xf6, 0xf3, 0xe6, 0xf8, 0x00,
  0xfa, 0x06, 0x0c, 0xfd, 0xf5, 0x01, 0xe6, 0xd4, 0xff, 0x05, 0x0a, 0xfa,
  0x06, 0x01, 0x07, 0x0c, 0xf6, 0x17, 0xea, 0x0f, 0xf7, 0x16, 0xc2, 0xd5,
  0x0b, 0x06, 0xfe, 0x16, 0x01, 0xe7, 0xf3, 0x0b, 0xe0, 0xf0, 0x08, 0x81,
  0x03, 0xf5, 0xf1, 0xdb, 0x08, 0x04, 0x1d, 0xfc, 0x08, 0xea, 0xe7, 0xff,
  0x13, 0xd4, 0xcf, 0x0b, 0x05, 0xff, 0xf7, 0x3d, 0x11, 0xfa, 0x12, 0xfb,
  0xfc, 0xeb, 0xc9, 0x00, 0xfb, 0x0a, 0x1b, 0xfa, 0xf3, 0xfe, 0xf6, 0xf5,
  0x00, 0xfa, 0x05, 0xff, 0xc8, 0x01, 0x02, 0x0b, 0xee, 0x0a, 0xe3, 0x09,
  0xfb, 0x1b, 0xf6, 0xf5, 0x0c, 0x01, 0x04, 0x19, 0xff, 0x10, 0xfb, 0x09,
  0xf3, 0x02, 0xff, 0xd6, 0xef, 0xf2, 0xf6, 0xfe, 0xfb, 0x03, 0x1c, 0x01,
  0x0c, 0x03, 0x08, 0x01, 0x0f, 0xf7, 0xc0, 0xfd, 0xf8, 0x00, 0xec, 0x12,
  0x0e, 0x03, 0x02, 0x0e, 0x04, 0xfc, 0x94, 0x00, 0xfb, 0xe6, 0x05, 0xe9,
  0x00, 0x00, 0x01, 0x20, 0x01, 0xf6, 0x02, 0x00, 0xe8, 0x00, 0x03, 0x05,
  0x07, 0xf4, 0xf6, 0xf7, 0x02, 0xae, 0xfc, 0xef, 0xff, 0x0b, 0x0a, 0x13,
  0x00, 0xe8, 0xf7, 0x05, 0x00, 0x02, 0xfd, 0xe4, 0x0d, 0xeb, 0xd9, 0x03,
  0xf9, 0x1b, 0x4d, 0x00, 0xf9, 0xf5, 0x00, 0x00, 0xe8, 0x10, 0xd1, 0xfe,
  0xfb, 0x01, 0xf5, 0xd1, 0xfa, 0xd5, 0xf7, 0x0a, 0x08, 0xff, 0x14, 0x00,
  0x06, 0xf2, 0x19, 0xe8, 0xf2, 0x00, 0xe2, 0x03, 0xff, 0x04, 0xe9, 0xff,
  0x10, 0x01, 0x04, 0x05, 0x05, 0x05, 0xfa, 0xfb, 0xfe, 0xd1, 0xdf, 0x07,
  0xfb, 0x0e, 0xf0, 0x02, 0x00, 0x3e, 0xf9, 0xeb, 0xff, 0x04, 0xf7, 0xea,
  0xd9, 0xf3, 0xe3, 0x1f, 0x07, 0x05, 0x17, 0x01, 0xdc, 0xe8, 0x0d, 0xff,
  0xf1, 0xda, 0xe0, 0x01, 0x01, 0x00, 0xfe, 0xe3, 0xf6, 0x01, 0xff, 0xfb,
  0xff, 0x0e, 0x0d, 0xff, 0xf5, 0xfd, 0x15, 0xdf, 0x38, 0xff, 0x05, 0x00,
  0x01, 0x01, 0xf7, 0xfb, 0xeb, 0xff, 0xe2, 0x18, 0xf9, 0x03, 0x07, 0xfd,
  0x0e, 0x39, 0xf8, 0xfe, 0xee, 0x0c, 0xf2, 0x04, 0x00, 0xff, 0xfa, 0x03,
  0x00, 0xef, 0x01, 0xe0, 0xfb, 0xfe, 0xfa, 0x11, 0x00, 0x0c, 0x0a, 0xee,
  0x06, 0xf8, 0xfd, 0x00, 0x20, 0x00, 0xf6, 0xf4, 0x2c, 0x00, 0x1d, 0xe7,
  0x01, 0xe2, 0x02, 0xd4, 0xfe, 0x02, 0x05, 0x00, 0x07, 0x0d, 0x01, 0x01,
  0xce, 0x00, 0x09, 0xff, 0x00, 0x05, 0x01, 0x0c, 0xfe, 0x01, 0x03, 0xf0,
  0x00, 0x01, 0x14, 0x02, 0xee, 0xec, 0xf4, 0xff, 0xef, 0xee, 0x03, 0x0f,
  0xff, 0x18, 0xea, 0xfb, 0xf6, 0xd6, 0xff, 0xed, 0xf3, 0x19, 0xf4, 0x03,
  0x00, 0x00, 0x0b, 0xf9, 0x05, 0xe9, 0x09, 0x00, 0x19, 0x00, 0x24, 0xfd,
  0xdf, 0x00, 0x08, 0xf1, 0xf6, 0x01, 0x0c, 0xec, 0x04, 0xf7, 0xf9, 0x01,
  0xb5, 0xd0, 0xfe, 0xf8, 0x06, 0x01, 0xef, 0x24, 0x00, 0x07, 0xfb, 0x02,
  0x0b, 0xff, 0x00, 0x14, 0xfa, 0xfa, 0x00, 0xfa, 0x0b, 0x0f, 0xed, 0xfe,
  0xfa, 0xce, 0x01, 0x0e, 0xff, 0x15, 0xe7, 0x02, 0xee, 0xf9, 0x01, 0x14,
  0x02, 0x0c, 0xfa, 0x09, 0xfc, 0x02, 0xc1, 0x01, 0xff, 0xf4, 0xee, 0xff,
  0x02, 0xfe, 0x04, 0xfb, 0x06, 0x00, 0xff, 0xfe, 0xf7, 0x0a, 0x03, 0x02,
  0xff, 0xfb, 0xfc, 0xff, 0x02, 0x00, 0x06, 0xf9, 0x00, 0xff, 0x03, 0xfe,
  0xff, 0x07, 0x00, 0x01, 0x11, 0xff, 0x0c, 0x05, 0xf1, 0xf6, 0xfc, 0xf0,
  0xfd, 0xf1, 0x0c, 0xfe, 0x02, 0xfd, 0x01, 0xf9, 0x00, 0x0a, 0xf4, 0x00,
  0x03, 0xfd, 0xfd, 0xc8, 0xff, 0x00, 0xf9, 0x03, 0xfa, 0xfe, 0xb6, 0xfe,
  0xf9, 0x03, 0xfe, 0x00, 0x0c, 0xfa, 0x05, 0x01, 0x00, 0x00, 0x10, 0xfd,
  0x04, 0x09, 0x04, 0xfe, 0xff, 0x04, 0xfa, 0x02, 0x06, 0x0c, 0x08, 0xfc,
  0xff, 0xfd, 0x00, 0x03, 0xff, 0xfe, 0xff, 0xfe, 0xf3, 0x00, 0x12, 0x08,
  0x02, 0x11, 0xfe, 0xf1, 0xf2, 0xff, 0xb4, 0x00, 0xef, 0x04, 0xfd, 0x05,
  0xff, 0x0c, 0x00, 0x02, 0x02, 0xfd, 0x03, 0xf2, 0x0c, 0x03, 0x03, 0xfd,
  0x02, 0xff, 0xff, 0x01, 0x01, 0xfe, 0x01, 0x01, 0xfc, 0xfa, 0xfd, 0x05,
  0xfe, 0x01, 0xf1, 0xf7, 0x05, 0x00, 0x02, 0xfd, 0x0c, 0x04, 0x0a, 0xfe,
  0x04, 0x03, 0xfd, 0xff, 0x00, 0x01, 0x06, 0xfc, 0x01, 0x00, 0xfa, 0x03,
  0xef, 0x00, 0x04, 0xfd, 0x0c, 0x14, 0x02, 0xea, 0xfc, 0xff, 0xfc, 0x00,
  0xf5, 0x02, 0x00, 0x06, 0x01, 0x0b, 0x01, 0x03, 0x10, 0x03, 0x01, 0xe0,
  0xfe, 0x05, 0x03, 0x04, 0xf8, 0xfc, 0xfe, 0x01, 0xf9, 0x00, 0x05, 0x00,
  0xf5, 0x01, 0xfd, 0x07, 0xfe, 0x02, 0xf5, 0x06, 0x03, 0xfc, 0x00, 0xf0,
  0x10, 0x02, 0x0c, 0x01, 0x03, 0xff, 0x08, 0x03, 0x00, 0xfe, 0x06, 0x02,
  0x00, 0x05, 0xf6, 0x04, 0xfa, 0x00, 0x03, 0x01, 0x07, 0x16, 0x02, 0xf1,
  0xfc, 0xff, 0x01, 0x04, 0xff, 0x00, 0xfe, 0xf8, 0xff, 0x06, 0x03, 0x0b,
  0x0b, 0x05, 0xfe, 0xc2, 0x01, 0x04, 0x04, 0x06, 0xdc, 0x02, 0xf8, 0x04,
  0xfa, 0x01, 0x06, 0xff, 0xf6, 0xff, 0xf7, 0x02, 0x02, 0xff, 0xea, 0xfe,
  0x03, 0xff, 0xf9, 0xf7, 0x17, 0x03, 0x08, 0xfe, 0x01, 0xf7, 0xfd, 0x07,
  0x00, 0xfd, 0x06, 0xfd, 0x00, 0x02, 0xf9, 0xfe, 0xef, 0x01, 0x03, 0x00,
  0x09, 0x04, 0x01, 0xfb, 0xfd, 0xee, 0x01, 0x06, 0xfc, 0x00, 0x04, 0xfa,
  0x00, 0x06, 0x02, 0x0f, 0x0e, 0x04, 0xfd, 0xd1, 0x01, 0x04, 0x03, 0x03,
  0xda, 0x01, 0xf9, 0x01, 0xf7, 0x03, 0x06, 0xff, 0xf4, 0xfa, 0xf6, 0x01,
  0x00, 0x01, 0xef, 0xfb, 0x04, 0x00, 0xfc, 0xf5, 0x14, 0x06, 0x05, 0xfe,
  0x02, 0xf7, 0xfd, 0x05, 0x02, 0xfd, 0x08, 0x01, 0x00, 0xff, 0xf7, 0x00,
  0xee, 0xff, 0x01, 0x01, 0x07, 0x03, 0x01, 0xf7, 0xfe, 0xf4, 0x02, 0x04,
  0xf8, 0x01, 0x06, 0xfd, 0x00, 0x05, 0x03, 0x0d, 0x0c, 0x07, 0xfd, 0xd3,
  0x04, 0x03, 0x03, 0x06, 0xda, 0x01, 0xfa, 0x00, 0xf7, 0x03, 0x05, 0xff,
  0xf4, 0xfb, 0xf6, 0x06, 0x00, 0xfe, 0xed, 0xfe, 0x05, 0x05, 0xfc, 0xf6,
  0x15, 0x06, 0x03, 0x01, 0x01, 0xf3, 0xfc, 0x07, 0x03, 0xfd, 0x09, 0x01,
  0xfe, 0xff, 0xf5, 0xfd, 0xe9, 0xff, 0x03, 0x01, 0x09, 0x01, 0xff, 0xf7,
  0xfe, 0xfa, 0x02, 0x04, 0xff, 0x00, 0x04, 0x01, 0x00, 0x03, 0x04, 0x0b,
  0x0d, 0x0b, 0xfb, 0xf0, 0x02, 0x02, 0x01, 0x08, 0xd0, 0xfd, 0xfc, 0x01,
  0xf5, 0x04, 0x05, 0x01, 0xf3, 0xfa, 0xfb, 0x04, 0xff, 0xff, 0xe7, 0xff,
  0x07, 0x04, 0xf9, 0xf8, 0x12, 0x04, 0x06, 0xff, 0xff, 0xf4, 0xff, 0x04,
  0x04, 0xff, 0x08, 0x03, 0x00, 0x00, 0xf5, 0xff, 0xed, 0xff, 0x03, 0xff,
  0x05, 0x01, 0x01, 0xf6, 0xff, 0xf6, 0x05, 0x0a, 0xff, 0xff, 0x03, 0xfb,
  0x00, 0x05, 0x03, 0x06, 0x0c, 0x0a, 0xfe, 0xe9, 0x05, 0x03, 0x00, 0x09,
  0xdd, 0xfe, 0xfb, 0xfd, 0xf6, 0x06, 0x05, 0x01, 0xec, 0xfa, 0xfc, 0x05,
  0xfd, 0xfe, 0xe6, 0xfd, 0x06, 0x03, 0xf5, 0xfc, 0x15, 0x05, 0x07, 0xfe,
  0x01, 0xf1, 0xff, 0x05, 0x03, 0x00, 0x08, 0x06, 0xff, 0xff, 0xf4, 0xfd,
  0xeb, 0x01, 0x02, 0x03, 0x05, 0x06, 0x00, 0xf8, 0x01, 0xf2, 0x03, 0x0a,
  0xfb, 0xfe, 0x02, 0xfe, 0x00, 0x03, 0x05, 0x0f, 0x09, 0x0b, 0xff, 0xf4,
  0x02, 0x02, 0xff, 0x07, 0xd1, 0xfd, 0xf8, 0xfd, 0xf4, 0x04, 0x06, 0x00,
  0xea, 0xfa, 0x00, 0x04, 0xfb, 0xfe, 0xe5, 0x02, 0x09, 0x04, 0xf7, 0xf6,
  0x17, 0x08, 0x05, 0xfe, 0x01, 0xf8, 0xfb, 0x04, 0x03, 0xff, 0x07, 0x05,
  0xff, 0x01, 0xf7, 0xfb, 0xea, 0xff, 0x02, 0x03, 0x05, 0x05, 0x01, 0xf5,
  0x02, 0xf0, 0x04, 0x0c, 0xf6, 0xfd, 0x02, 0xfd, 0x00, 0x05, 0x03, 0x0d,
  0x08, 0x0b, 0x02, 0xf6, 0x01, 0x03, 0x01, 0x0a, 0xcc, 0xfc, 0xf6, 0xfc,
  0xf6, 0x04, 0x06, 0xff, 0xe9, 0xf6, 0xfd, 0x07, 0xfc, 0xff, 0xe6, 0xfa,
  0x08, 0x03, 0xf7, 0xf5, 0x18, 0x06, 0x04, 0x01, 0x01, 0xf9, 0xfc, 0x05,
  0x02, 0xff, 0x08, 0x04, 0x00, 0x00, 0xf4, 0xfe, 0xed, 0x01, 0xff, 0x03,
  0x05, 0x06, 0x00, 0xf7, 0x01, 0xf2, 0x05, 0x0f, 0x00, 0xfd, 0x00, 0xfd,
  0xff, 0x02, 0x05, 0x10, 0x09, 0x0c, 0x00, 0xf5, 0x00, 0x04, 0xff, 0x08,
  0xcb, 0xfc, 0xf5, 0xfa, 0xf4, 0x04, 0x07, 0x01, 0xe3, 0xf3, 0x00, 0x06,
  0xfd, 0xff, 0xe6, 0xfb, 0x05, 0x04, 0xf1, 0xf4, 0x20, 0x04, 0x07, 0xfe,
  0xff, 0xf8, 0xfc, 0x03, 0x03, 0x01, 0x07, 0x07, 0xfe, 0x00, 0xf5, 0xfd,
  0xee, 0x00, 0xfd, 0x02, 0x06, 0x03, 0xfe, 0xef, 0x03, 0xf1, 0x02, 0x0c,
  0x03, 0xfe, 0x01, 0xfd, 0xfe, 0x03, 0x04, 0x0a, 0x0d, 0x0c, 0xff, 0xe6,
  0x00, 0x05, 0x01, 0x0a, 0xce, 0xfd, 0xf2, 0xfb, 0xf3, 0x06, 0x08, 0x00,
  0xd7, 0xf7, 0x01, 0x07, 0xfd, 0x01, 0xe4, 0xff, 0x07, 0x02, 0xf2, 0xf4,
  0x1b, 0x03, 0x04, 0xfe, 0xfe, 0xf3, 0xfc, 0x07, 0x04, 0x03, 0x07, 0x0c,
  0x01, 0xfe, 0xf5, 0xfe, 0xf3, 0x00, 0xfe, 0x03, 0x04, 0x04, 0x01, 0xfa,
  0x03, 0xf1, 0x02, 0x0c, 0xfe, 0xfe, 0x01, 0xfa, 0x01, 0x03, 0x03, 0x0f,
  0x12, 0x0c, 0xfa, 0xe7, 0xfe, 0x06, 0x00, 0x09, 0xcf, 0xfe, 0xf7, 0xfa,
  0xf4, 0x05, 0x08, 0x01, 0xd7, 0xf7, 0x02, 0x05, 0xfc, 0xfe, 0xdf, 0xfe,
  0x03, 0x03, 0xf9, 0xf5, 0x18, 0x03, 0x04, 0xff, 0xff, 0xf8, 0xfa, 0x07,
  0x04, 0x05, 0x07, 0x0f, 0x00, 0x02, 0xf7, 0x00, 0xf3, 0xfe, 0xfd, 0x01,
  0x04, 0x05, 0x02, 0xef, 0x05, 0xf7, 0x04, 0x0d, 0xfc, 0xfc, 0x01, 0xff,
  0xfe, 0x09, 0x05, 0x0a, 0x07, 0x0c, 0x00, 0xf8, 0xfd, 0x05, 0xfe, 0x07,
  0xd5, 0xfe, 0xf3, 0xf9, 0xf6, 0x04, 0x06, 0x00, 0xe1, 0xf6, 0x04, 0x05,
  0xfc, 0x00, 0xe7, 0x02, 0x03, 0x06, 0xf6, 0xf5, 0x17, 0x05, 0x05, 0x00,
  0xff, 0xfc, 0xfa, 0x06, 0x04, 0x05, 0x07, 0x0a, 0x01, 0x02, 0xf5, 0x00,
  0xef, 0xfe, 0xfc, 0xff, 0x03, 0x07, 0x01, 0x00, 0x03, 0xfa, 0x05, 0x0d,
  0xfd, 0xfd, 0x01, 0xfb, 0xfe, 0x07, 0x02, 0x0a, 0x10, 0x0b, 0xfc, 0xef,
  0xfb, 0x03, 0xff, 0x07, 0xcf, 0xfd, 0xf4, 0xff, 0xf7, 0x03, 0x07, 0x01,
  0xdc, 0xf4, 0x03, 0x0a, 0xfd, 0xfe, 0xea, 0xfd, 0x05, 0x06, 0xf1, 0xf5,
  0x15, 0x07, 0x05, 0xfe, 0x00, 0xfb, 0xf9, 0x04, 0x04, 0x03, 0x05, 0x09,
  0x01, 0xfe, 0xf5, 0x01, 0xec, 0x00, 0xfe, 0xff, 0x04, 0x02, 0x00, 0xf3,
  0x02, 0xf8, 0xff, 0x0e, 0xff, 0xfb, 0x00, 0xfd, 0xfe, 0x03, 0x02, 0x03,
  0x10, 0x09, 0xfd, 0xf0, 0xfa, 0x01, 0xfd, 0x05, 0xda, 0xfe, 0xf0, 0xfe,
  0xf8, 0x04, 0x07, 0x00, 0xe6, 0xf8, 0x04, 0x0a, 0x01, 0xfe, 0xf0, 0xf9,
  0x02, 0x05, 0xf4, 0xf7, 0x13, 0x04, 0x01, 0x01, 0x00, 0xfc, 0xf9, 0x07,
  0x04, 0x01, 0x03, 0x06, 0x01, 0x00, 0xf8, 0x03, 0xec, 0x00, 0xff, 0xfe,
  0x04, 0x03, 0x05, 0xf3, 0x01, 0xf7, 0xff, 0x0c, 0xff, 0xfd, 0x00, 0xfd,
  0x00, 0x00, 0x02, 0x01, 0x14, 0x08, 0xfd, 0xee, 0xfb, 0x03, 0xff, 0x07,
  0xe0, 0xff, 0xf4, 0xfe, 0xf8, 0x04, 0x05, 0x01, 0xf8, 0xf8, 0x04, 0x09,
  0xfe, 0x00, 0xfa, 0xff, 0xfc, 0x04, 0xf9, 0xf9, 0x10, 0x05, 0x00, 0x00,
  0x01, 0xfe, 0xf7, 0x05, 0x05, 0x01, 0x04, 0x0b, 0xff, 0xff, 0xfb, 0x03,
  0xe8, 0xfe, 0xfe, 0xfe, 0x01, 0x02, 0x03, 0xf6, 0xfe, 0xf6, 0xff, 0x09,
  0x07, 0xfe, 0x01, 0xfe, 0x01, 0xfe, 0x01, 0x02, 0x03, 0x04, 0xfc, 0x10,
  0x12, 0x00, 0x02, 0x06, 0xf1, 0xff, 0xf8, 0xff, 0xfa, 0x02, 0x08, 0x00,
  0xf9, 0x0a, 0x08, 0x02, 0xfc, 0xff, 0x00, 0x00, 0x00, 0x01, 0xfb, 0xf9,
  0x09, 0x02, 0x09, 0xfe, 0x00, 0x00, 0xf6, 0x03, 0x04, 0x00, 0x00, 0x0b,
  0x01, 0xff, 0xfe, 0x01, 0x05, 0x00, 0xfe, 0x00, 0x07, 0xff, 0x02, 0xfe,
  0x01, 0xf3, 0xfe, 0x03, 0x01, 0xfd, 0xfe, 0xfe, 0x01, 0xf8, 0x02, 0x06,
  0x04, 0x00, 0x01, 0xd9, 0x1c, 0xfd, 0x05, 0x00, 0xf5, 0xf9, 0xf5, 0x01,
  0xf8, 0x02, 0x05, 0x01, 0xff, 0xf5, 0x0b, 0x00, 0x03, 0xff, 0xfe, 0xf9,
  0xe8, 0x03, 0x03, 0xfd, 0xfd, 0x00, 0x03, 0xff, 0xff, 0x00, 0xfe, 0x09,
  0x02, 0x02, 0x01, 0x0b, 0x00, 0xfd, 0xfe, 0x04, 0xfe, 0x01, 0x00, 0x01,
  0x03, 0xff, 0x00, 0x01, 0x02, 0xfd, 0x00, 0x01, 0xfc, 0xfe, 0xfe, 0x00,
  0x00, 0x0a, 0x04, 0x02, 0x00, 0x02, 0x06, 0xed, 0xf2, 0x03, 0x03, 0xfa,
  0x03, 0xfb, 0xf8, 0x03, 0xff, 0x08, 0xf2, 0x01, 0x01, 0xed, 0x11, 0x01,
  0x04, 0x01, 0x06, 0x03, 0xee, 0x0b, 0x02, 0x06, 0x03, 0x01, 0xfa, 0x01,
  0xfe, 0xf8, 0xef, 0xfd, 0x07, 0xff, 0x06, 0xd3, 0xff, 0xfb, 0xfe, 0xf8,
  0xfb, 0xff, 0xff, 0x02, 0x06, 0x00, 0xfc, 0xfe, 0x02, 0xea, 0x04, 0xfb,
  0xff, 0x1a, 0x06, 0xfd, 0x00, 0xf6, 0x02, 0x01, 0x00, 0x04, 0x02, 0xef,
  0x02, 0x14, 0x05, 0xf5, 0xf3, 0xfd, 0x04, 0x02, 0xf4, 0x0c, 0xf4, 0x00,
  0x02, 0x27, 0x0b, 0x01, 0x00, 0xff, 0x00, 0xfd, 0xea, 0xfe, 0x00, 0xff,
  0x01, 0xfc, 0xf8, 0xff, 0xf8, 0x00, 0xf7, 0x05, 0xee, 0x01, 0x00, 0xfd,
  0xff, 0xff, 0xfc, 0xfb, 0x05, 0x00, 0x05, 0xdd, 0x0c, 0x01, 0xf9, 0x00,
  0xfc, 0x1f, 0x1f, 0x01, 0x01, 0xfc, 0x00, 0xff, 0x00, 0x03, 0xfa, 0x03,
  0x00, 0xf9, 0x00, 0xf9, 0xfb, 0x04, 0x01, 0xeb, 0x00, 0x08, 0x1b, 0xf6,
  0x01, 0xfc, 0xff, 0xff, 0xfa, 0x00, 0x00, 0xff, 0xf6, 0x01, 0xe5, 0x08,
  0xfd, 0xf2, 0xfc, 0x03, 0x08, 0xff, 0xf9, 0x00, 0xdd, 0xfc, 0xf6, 0xfa,
  0xf5, 0x01, 0x05, 0x01, 0x00, 0x09, 0xfc, 0xfe, 0x01, 0xff, 0x03, 0x1b,
  0xfb, 0x01, 0xf3, 0xff, 0x08, 0x05, 0x04, 0x03, 0xfe, 0x06, 0xff, 0x26,
  0x01, 0xfc, 0x0a, 0x08, 0x03, 0xf5, 0x00, 0x00, 0x08, 0xef, 0x03, 0xfb,
  0xfa, 0x04, 0xf9, 0x06, 0x01, 0xe3, 0xfd, 0xfe, 0xf9, 0x00, 0x04, 0x01,
  0xfb, 0x01, 0xfc, 0xd3, 0xf2, 0xff, 0xe4, 0x08, 0x03, 0xfd, 0xf1, 0xff,
  0xe7, 0x0c, 0x00, 0x03, 0xf9, 0x02, 0x0e, 0xf0, 0x00, 0xf9, 0xf2, 0x02,
  0x00, 0x01, 0x03, 0x05, 0xf7, 0x04, 0x02, 0xfe, 0xfc, 0xcd, 0x02, 0x00,
  0xfc, 0xfb, 0xfe, 0x0b, 0xfe, 0xf9, 0x01, 0x23, 0xff, 0x02, 0x00, 0x00,
  0x0f, 0x06, 0x02, 0xfb, 0xff, 0xff, 0xcb, 0x01, 0x0a, 0x00, 0x07, 0x00,
  0xfe, 0x00, 0xeb, 0x00, 0x02, 0x00, 0xfc, 0xfa, 0xe6, 0x0e, 0x08, 0xf8,
  0x02, 0x02, 0x0d, 0x00, 0xd3, 0x12, 0x0a, 0xff, 0xff, 0x03, 0x03, 0x01,
  0x01, 0xfd, 0x01, 0x05, 0xff, 0xff, 0xfe, 0xd9, 0x19, 0xfe, 0x0d, 0xfc,
  0x04, 0xe7, 0xec, 0xfe, 0xed, 0x17, 0x05, 0xf9, 0x00, 0xf8, 0x06, 0x01,
  0xfa, 0xfd, 0x02, 0xed, 0xfd, 0x01, 0xfe, 0x03, 0xfe, 0x01, 0xbe, 0x03,
  0xfb, 0x03, 0xfe, 0x00, 0xfc, 0xff, 0x09, 0xfe, 0xfe, 0xfe, 0x00, 0x0b,
  0xdc, 0x03, 0x00, 0xe4, 0x05, 0x01, 0x05, 0x01, 0xfa, 0xfa, 0xec, 0xfd,
  0xff, 0x02, 0x00, 0xfd, 0x02, 0x00, 0xfe, 0x07, 0xfc, 0x00, 0x02, 0xc5,
  0x19, 0x0c, 0xff, 0xf6, 0xfd, 0x12, 0x45, 0xff, 0xcd, 0x05, 0x00, 0xe8,
  0xff, 0xe9, 0x00, 0xf9, 0xe8, 0xf8, 0x03, 0xfb, 0xfe, 0x03, 0x00, 0xfe,
  0x06, 0xfb, 0xfa, 0x02, 0x02, 0xff, 0xfe, 0x01, 0xec, 0x07, 0x09, 0xfb,
  0xfc, 0x01, 0x03, 0xfe, 0xec, 0x05, 0x00, 0x00, 0xf7, 0x00, 0x02, 0xff,
  0x05, 0x01, 0x23, 0xfd, 0xfe, 0x00, 0x03, 0x06, 0x01, 0xfb, 0x04, 0xfe,
  0xfd, 0xff, 0xff, 0x01, 0x09, 0xfb, 0x00, 0x00, 0xfb, 0x06, 0x0a, 0x02,
  0xcf, 0x00, 0x04, 0xdc, 0x00, 0xd0, 0x02, 0x01, 0xd6, 0xfc, 0x00, 0xfb,
  0xfc, 0x08, 0xff, 0xfd, 0x04, 0xef, 0x03, 0x03, 0xff, 0xff, 0x02, 0xff,
  0xfd, 0x03, 0x05, 0xf6, 0xfa, 0x01, 0x03, 0x01, 0xcf, 0x00, 0x00, 0x01,
  0xee, 0x01, 0x02, 0xff, 0x05, 0x02, 0x14, 0xf9, 0xfd, 0x03, 0x07, 0x01,
  0xff, 0xe7, 0x05, 0xfc, 0xff, 0x01, 0x00, 0xfc, 0x0c, 0xf5, 0x04, 0xff,
  0xff, 0x04, 0x07, 0x05, 0xc9, 0xfe, 0x07, 0xf9, 0x00, 0x9f, 0x06, 0xf7,
  0xb7, 0xfa, 0x02, 0xfc, 0xfd, 0x08, 0xfe, 0xff, 0x10, 0xe6, 0x08, 0x01,
  0x00, 0xfd, 0x04, 0x00, 0xfc, 0x06, 0x06, 0xef, 0xe6, 0xff, 0x09, 0x11,
  0xce, 0xff, 0x05, 0x04, 0xe0, 0x03, 0x01, 0x00, 0x03, 0x0d, 0x17, 0xf8,
  0xfb, 0x03, 0x06, 0x00, 0xff, 0xee, 0x05, 0x00, 0x00, 0x00, 0xfe, 0xfa,
  0x0c, 0xff, 0x04, 0xfb, 0x05, 0x08, 0x07, 0x09, 0xd5, 0xfd, 0x05, 0xf8,
  0x00, 0xab, 0x06, 0xf8, 0xbe, 0xfd, 0x03, 0xfc, 0xfd, 0x08, 0xfe, 0xfe,
  0x14, 0xe1, 0x06, 0xff, 0x02, 0xfe, 0x02, 0x00, 0xfd, 0x06, 0x03, 0xef,
  0xe2, 0x00, 0x09, 0x0a, 0xd1, 0xff, 0x04, 0x05, 0xd9, 0x00, 0xff, 0x00,
  0x02, 0x06, 0x15, 0xf4, 0xfc, 0x03, 0x08, 0x00, 0x00, 0xee, 0x05, 0x01,
  0x00, 0x01, 0xfc, 0xfa, 0x09, 0xfe, 0x03, 0xfe, 0x05, 0x05, 0x09, 0x07,
  0xee, 0xfc, 0x04, 0xf7, 0xff, 0xb2, 0x05, 0xf9, 0xc0, 0xfb, 0x04, 0xfd,
  0x00, 0x08, 0xfd, 0x00, 0x16, 0xe5, 0x06, 0x01, 0x02, 0x00, 0x03, 0x00,
  0xfa, 0x07, 0x07, 0xed, 0xe5, 0x00, 0x08, 0x09, 0xc1, 0x01, 0x06, 0x06,
  0xd3, 0x02, 0xfc, 0xfe, 0x04, 0x05, 0x13, 0xf5, 0xfd, 0x02, 0x08, 0xfe,
  0x00, 0xe9, 0x02, 0x03, 0xff, 0x01, 0xfc, 0xf6, 0x0b, 0xfc, 0x05, 0xfe,
  0x02, 0x0c, 0x0b, 0x06, 0xe8, 0xfa, 0x03, 0xf7, 0xff, 0xb5, 0x04, 0xf3,
  0xb1, 0xfe, 0x03, 0xfb, 0xff, 0x06, 0xfc, 0x01, 0x13, 0xe5, 0x05, 0x02,
  0x02, 0x02, 0x04, 0x01, 0xfa, 0x08, 0x06, 0xe3, 0xe8, 0xff, 0x0b, 0x12,
  0xca, 0x02, 0x05, 0x09, 0xdb, 0x00, 0xfd, 0xfe, 0x05, 0x07, 0x12, 0xf2,
  0xfe, 0x00, 0x07, 0x00, 0x00, 0xed, 0x01, 0x02, 0x01, 0x00, 0xfd, 0xf9,
  0x08, 0x00, 0x08, 0xfd, 0x05, 0x08, 0x0a, 0x0d, 0xf1, 0xf9, 0x04, 0xf7,
  0x01, 0xc8, 0x08, 0xef, 0xb7, 0xfd, 0x04, 0xfa, 0x00, 0x06, 0xfd, 0x01,
  0x15, 0xeb, 0x07, 0x00, 0x01, 0x03, 0x04, 0xff, 0xfb, 0x08, 0x08, 0xe6,
  0xea, 0x00, 0x06, 0x16, 0xc6, 0x04, 0x01, 0x0c, 0xcd, 0xff, 0xfd, 0x01,
  0x05, 0x0a, 0x12, 0xf5, 0xfe, 0x00, 0x09, 0xf9, 0xff, 0xec, 0x02, 0x02,
  0x04, 0xff, 0xfc, 0xfa, 0x06, 0x00, 0x09, 0xfb, 0x04, 0x04, 0x0d, 0x0f,
  0xed, 0xf6, 0x03, 0xf7, 0x00, 0xc5, 0x05, 0xef, 0xb8, 0xfd, 0x04, 0xfa,
  0xfe, 0x06, 0xfd, 0x00, 0x14, 0xeb, 0x04, 0x01, 0x01, 0x01, 0x02, 0xff,
  0xff, 0x08, 0x03, 0xd6, 0xeb, 0x00, 0x07, 0x14, 0xc7, 0x02, 0x02, 0x0e,
  0xbc, 0xff, 0xfc, 0x01, 0x05, 0x06, 0x12, 0xf4, 0xfd, 0x00, 0x08, 0xfb,
  0xfe, 0xe9, 0x04, 0x02, 0x05, 0xfe, 0xfe, 0xfb, 0x07, 0xff, 0x09, 0xfd,
  0x05, 0x08, 0x0d, 0x11, 0xee, 0xf7, 0x03, 0xf8, 0x02, 0xef, 0x05, 0xe9,
  0xbf, 0xfe, 0x03, 0xfd, 0xff, 0x07, 0xfd, 0x00, 0x16, 0xe8, 0x01, 0x00,
  0x02, 0x02, 0x02, 0xff, 0x02, 0x07, 0x06, 0xc9, 0xea, 0xff, 0x09, 0x0f,
  0xc7, 0x02, 0x01, 0x0c, 0xd1, 0xfe, 0xfc, 0x00, 0x05, 0x05, 0x10, 0xf4,
  0xfd, 0x01, 0x08, 0xf4, 0xff, 0xeb, 0x05, 0x03, 0x05, 0x00, 0xfe, 0xfc,
  0x09, 0xfc, 0x0c, 0xfb, 0x05, 0x0a, 0x0e, 0x12, 0xda, 0xf4, 0x01, 0xf6,
  0x01, 0xca, 0x04, 0xea, 0xbc, 0xfc, 0x03, 0xfd, 0xff, 0x07, 0xfc, 0x00,
  0x14, 0xe6, 0x04, 0x00, 0x00, 0x04, 0x03, 0x01, 0x01, 0x05, 0x06, 0xcc,
  0xe9, 0xfe, 0x07, 0x0a, 0xca, 0x00, 0x00, 0x0c, 0xd0, 0xfc, 0xfd, 0x01,
  0x05, 0x04, 0x12, 0xf0, 0xff, 0x02, 0x07, 0xf6, 0x00, 0xe7, 0x07, 0x02,
  0x04, 0x02, 0xfe, 0xfb, 0x07, 0x00, 0x08, 0xfb, 0x04, 0x0d, 0x0e, 0x0f,
  0xd4, 0xf5, 0x00, 0xf7, 0x01, 0xde, 0x04, 0xf0, 0xd2, 0xfe, 0x04, 0x00,
  0xfe, 0x09, 0xfc, 0x01, 0x11, 0xe3, 0x08, 0x06, 0x05, 0x06, 0x03, 0x00,
  0x03, 0x03, 0x05, 0xc3, 0xec, 0xfe, 0x08, 0x0e, 0xce, 0x02, 0x02, 0x0e,
  0xd4, 0xfe, 0xff, 0x00, 0x06, 0x06, 0x10, 0xf1, 0x01, 0x01, 0x09, 0xf8,
  0x00, 0xe9, 0x05, 0x05, 0x04, 0x02, 0x02, 0xf7, 0x08, 0x00, 0x04, 0xf8,
  0x06, 0x09, 0x0c, 0x10, 0xc4, 0xf1, 0x00, 0xf4, 0x03, 0xdf, 0x05, 0xee,
  0xc3, 0xfd, 0x04, 0xfe, 0xfe, 0x08, 0xfc, 0xff, 0x11, 0xde, 0x07, 0x04,
  0x09, 0x04, 0x01, 0x00, 0x06, 0x04, 0x06, 0xc9, 0xed, 0xfe, 0x09, 0x13,
  0xd8, 0x05, 0x02, 0x10, 0xdc, 0xfd, 0xff, 0x00, 0x06, 0x06, 0x10, 0xf4,
  0x01, 0xfc, 0x07, 0xf7, 0xff, 0xea, 0x02, 0x06, 0x07, 0x00, 0xff, 0xf7,
  0x08, 0xfb, 0x04, 0xfb, 0x06, 0x0d, 0x0e, 0x0e, 0xde, 0xf4, 0x00, 0xf4,
  0x00, 0xd4, 0x04, 0xf2, 0xd1, 0xfe, 0x03, 0xfd, 0xfd, 0x05, 0xfd, 0xff,
  0x10, 0xe7, 0x08, 0x04, 0x09, 0x04, 0x01, 0x01, 0x08, 0x05, 0x08, 0xd9,
  0xee, 0x00, 0x08, 0x0e, 0xeb, 0x06, 0x02, 0x0c, 0xe0, 0x02, 0x02, 0x02,
  0x03, 0x06, 0x0a, 0xf3, 0x01, 0xfe, 0x07, 0xfa, 0x00, 0xe9, 0x03, 0x04,
  0x05, 0x00, 0x00, 0xf5, 0x05, 0xff, 0x08, 0xf9, 0x04, 0x12, 0x0f, 0x0e,
  0xe2, 0xf3, 0x00, 0xf7, 0xff, 0xe8, 0x06, 0xee, 0xd4, 0xff, 0x02, 0xfd,
  0x01, 0x02, 0xff, 0x00, 0x15, 0xef, 0x05, 0x07, 0x09, 0x03, 0x02, 0xff,
  0x0b, 0x04, 0x05, 0xbc, 0xef, 0x00, 0x09, 0x08, 0xf7, 0x06, 0x04, 0x0c,
  0xe5, 0x04, 0x02, 0x00, 0x03, 0x05, 0x0c, 0xf5, 0x00, 0x01, 0x06, 0xfb,
  0xff, 0xee, 0x01, 0x02, 0x04, 0x01, 0x00, 0xf2, 0x06, 0xfe, 0x05, 0xf8,
  0x04, 0x0e, 0x0b, 0x0f, 0xe0, 0xf1, 0x00, 0xf6, 0x01, 0x02, 0x04, 0xee,
  0xe0, 0xfd, 0x03, 0xfe, 0xfe, 0xff, 0xff, 0x02, 0x10, 0xf1, 0x05, 0x05,
  0x09, 0x03, 0xff, 0x01, 0x03, 0x03, 0x02, 0xc3, 0xef, 0x00, 0x06, 0x09,
  0xf4, 0x04, 0x05, 0x0b, 0xe9, 0x03, 0x02, 0x00, 0x01, 0x06, 0x08, 0xf7,
  0xfe, 0x00, 0x06, 0xfe, 0xff, 0xf5, 0x02, 0x03, 0x06, 0x00, 0x01, 0xf8,
  0x04, 0xfd, 0x04, 0xfa, 0x02, 0x11, 0x08, 0x0c, 0xf1, 0xf5, 0x01, 0xf4,
  0x00, 0x0a, 0x03, 0xf6, 0xd1, 0xfc, 0x03, 0x00, 0xff, 0x02, 0x01, 0x00,
  0x0f, 0xec, 0x08, 0x06, 0x08, 0x01, 0xfd, 0xfe, 0x02, 0x06, 0x03, 0xd8,
  0xf4, 0x00, 0x05, 0x03, 0xfb, 0x09, 0x03, 0x0a, 0xf0, 0x04, 0x03, 0x01,
  0xff, 0x06, 0x0a, 0xf7, 0xfe, 0x01, 0x04, 0xfb, 0x00, 0xfa, 0x03, 0x04,
  0x08, 0x00, 0x02, 0xfa, 0x09, 0xfa, 0x05, 0xfd, 0x02, 0x0c, 0x0c, 0x0a,
  0xe8, 0xf7, 0x02, 0xf5, 0xff, 0x07, 0x03, 0xfb, 0xfa, 0x01, 0xfd, 0x18,
  0xe6, 0x00, 0x02, 0x02, 0x09, 0xfb, 0x04, 0x07, 0x09, 0x02, 0xfd, 0x01,
  0x02, 0x06, 0x0a, 0xf1, 0xfd, 0x01, 0x01, 0xfa, 0xef, 0x03, 0x06, 0x09,
  0xf8, 0x04, 0x08, 0xfe, 0x00, 0x04, 0x0d, 0x00, 0x00, 0x01, 0x04, 0xf2,
  0xff, 0xfe, 0x02, 0x00, 0x0c, 0x00, 0x02, 0xf7, 0x07, 0xfe, 0x05, 0x03,
  0x03, 0x17, 0x0b, 0x09, 0xf4, 0xfe, 0x01, 0xf2, 0xff, 0x08, 0x03, 0xf8,
  0xf2, 0x02, 0x02, 0x05, 0xf9, 0xfe, 0x00, 0xfd, 0x0f, 0x04, 0x07, 0x01,
  0x05, 0xf8, 0xf2, 0x00, 0x03, 0xf1, 0x0b, 0x02, 0xff, 0xff, 0x08, 0xfc,
  0xfd, 0x03, 0x02, 0x00, 0xff, 0x01, 0x0b, 0xff, 0x01, 0x0d, 0x01, 0x04,
  0x02, 0x00, 0xfd, 0xe5, 0x01, 0xff, 0x03, 0xfc, 0x05, 0x01, 0xfb, 0xff,
  0xff, 0x03, 0x03, 0x08, 0x00, 0x13, 0x0a, 0x04, 0xfb, 0xfe, 0x02, 0xf7,
  0x01, 0xf4, 0x04, 0xfe, 0xff, 0x02, 0x06, 0xef, 0x04, 0xfe, 0x02, 0xfd,
  0xff, 0xf9, 0xe6, 0xff, 0x04, 0xf6, 0x12, 0xff, 0x06, 0xd7, 0x08, 0x00,
  0xff, 0x00, 0x03, 0x0b, 0x04, 0x01, 0x02, 0xf7, 0xfb, 0x01, 0xff, 0x01,
  0x01, 0x05, 0xfc, 0x07, 0x03, 0x01, 0x04, 0x13, 0xff, 0x01, 0x07, 0x03,
  0x05, 0x01, 0xfe, 0xe7, 0xf3, 0xff, 0x02, 0x01, 0x01, 0x16, 0x05, 0x01,
  0x00, 0xe0, 0x03, 0x00, 0xff, 0xf1, 0x02, 0x01, 0xfd, 0xfc, 0xfe, 0x05,
  0x05, 0xf8, 0xfc, 0xf9, 0x09, 0xff, 0x01, 0x01, 0x11, 0xfb, 0x14, 0x00,
  0x01, 0xcf, 0x09, 0x01, 0x01, 0x00, 0x00, 0x00, 0x09, 0x05, 0x00, 0xff,
  0xfd, 0xfb, 0x03, 0x01, 0x02, 0x00, 0xfc, 0x05, 0x04, 0x00, 0x03, 0x01,
  0x00, 0x01, 0x03, 0x01, 0x05, 0x01, 0x01, 0x09, 0xe7, 0x01, 0xfb, 0x02,
  0xfe, 0xe2, 0xe9, 0xff, 0x08, 0xf9, 0x00, 0x00, 0x22, 0xfe, 0xff, 0xff,
  0x04, 0x00, 0x00, 0x00, 0x10, 0x00, 0x00, 0x00, 0xce, 0x00, 0x00, 0x00,
  0x67, 0xff, 0xff, 0xff, 0x7d, 0x00, 0x00, 0x00, 0xf2, 0xfe, 0xff, 0xff,
  0x3e, 0xfe, 0xff, 0xff, 0x04, 0x00, 0x00, 0x00, 0x08, 0x00, 0x00, 0x00,
  0xff, 0xff, 0xff, 0xff, 0x00, 0x06, 0x00, 0x00, 0x52, 0xfe, 0xff, 0xff,
  0x04, 0x00, 0x00, 0x00, 0x0c, 0x00, 0x00, 0x00, 0xff, 0xff, 0xff, 0xff,
  0x18, 0x00, 0x00, 0x00, 0x20, 0x00, 0x00, 0x00, 0x6a, 0xfe, 0xff, 0xff,
  0x04, 0x00, 0x00, 0x00, 0x0c, 0x00, 0x00, 0x00, 0xff, 0xff, 0xff, 0xff,
  0x18, 0x00, 0x00, 0x00, 0x10, 0x00, 0x00, 0x00, 0x82, 0xfe, 0xff, 0xff,
  0x04, 0x00, 0x00, 0x00, 0x10, 0x00, 0x00, 0x00, 0x00, 0x00, 0x00, 0x00,
  0x00, 0x00, 0x00, 0x00, 0x01, 0x00, 0x00, 0x00, 0x01, 0x00, 0x00, 0x00,
  0x9e, 0xfe, 0xff, 0xff, 0x04, 0x00, 0x00, 0x00, 0x0c, 0x00, 0x00, 0x00,
  0xff, 0xff, 0xff, 0xff, 0x18, 0x00, 0x00, 0x00, 0x08, 0x00, 0x00, 0x00,
  0xb6, 0xfe, 0xff, 0xff, 0x04, 0x00, 0x00, 0x00, 0x10, 0x00, 0x00, 0x00,
  0x00, 0x00, 0x00, 0x00, 0x00, 0x00, 0x00, 0x00, 0x00, 0x00, 0x00, 0x00,
  0x00, 0x00, 0x00, 0x00, 0xd2, 0xfe, 0xff, 0xff, 0x04, 0x00, 0x00, 0x00,
  0x10, 0x00, 0x00, 0x00, 0x00, 0x00, 0x00, 0x00, 0x00, 0x00, 0x00, 0x00,
  0x02, 0x00, 0x00, 0x00, 0x02, 0x00, 0x00, 0x00, 0xee, 0xfe, 0xff, 0xff,
  0x04, 0x00, 0x00, 0x00, 0x08, 0x00, 0x00, 0x00, 0x01, 0x00, 0x00, 0x00,
  0x02, 0x00, 0x00, 0x00, 0x02, 0xff, 0xff, 0xff, 0x04, 0x00, 0x00, 0x00,
  0x04, 0x00, 0x00, 0x00, 0x01, 0x00, 0x00, 0x00, 0x14, 0xba, 0xff, 0xff,
  0x18, 0xba, 0xff, 0xff, 0x0f, 0x00, 0x00, 0x00, 0x4d, 0x4c, 0x49, 0x52,
  0x20, 0x43, 0x6f, 0x6e, 0x76, 0x65, 0x72, 0x74, 0x65, 0x64, 0x2e, 0x00,
  0x01, 0x00, 0x00, 0x00, 0x14, 0x00, 0x00, 0x00, 0x00, 0x00, 0x0e, 0x00,
  0x18, 0x00, 0x14, 0x00, 0x10, 0x00, 0x0c, 0x00, 0x08, 0x00, 0x04, 0x00,
  0x0e, 0x00, 0x00, 0x00, 0x14, 0x00, 0x00, 0x00, 0x1c, 0x00, 0x00, 0x00,
  0xc4, 0x06, 0x00, 0x00, 0xcc, 0x06, 0x00, 0x00, 0xd0, 0x06, 0x00, 0x00,
  0x04, 0x00, 0x00, 0x00, 0x6d, 0x61, 0x69, 0x6e, 0x00, 0x00, 0x00, 0x00,
  0x1e, 0x00, 0x00, 0x00, 0x7c, 0x06, 0x00, 0x00, 0x40, 0x06, 0x00, 0x00,
  0xe0, 0x05, 0x00, 0x00, 0xa4, 0x05, 0x00, 0x00, 0x50, 0x05, 0x00, 0x00,
  0x28, 0x05, 0x00, 0x00, 0xf8, 0x04, 0x00, 0x00, 0xcc, 0x04, 0x00, 0x00,
  0x84, 0x04, 0x00, 0x00, 0x58, 0x04, 0x00, 0x00, 0x10, 0x04, 0x00, 0x00,
  0xe8, 0x03, 0x00, 0x00, 0xb8, 0x03, 0x00, 0x00, 0x8c, 0x03, 0x00, 0x00,
  0x44, 0x03, 0x00, 0x00, 0x18, 0x03, 0x00, 0x00, 0xd0, 0x02, 0x00, 0x00,
  0xa8, 0x02, 0x00, 0x00, 0x78, 0x02, 0x00, 0x00, 0x28, 0x02, 0x00, 0x00,
  0xe0, 0x01, 0x00, 0x00, 0xb8, 0x01, 0x00, 0x00, 0x88, 0x01, 0x00, 0x00,
  0x44, 0x01, 0x00, 0x00, 0xfc, 0x00, 0x00, 0x00, 0xd4, 0x00, 0x00, 0x00,
  0x9c, 0x00, 0x00, 0x00, 0x78, 0x00, 0x00, 0x00, 0x40, 0x00, 0x00, 0x00,
  0x04, 0x00, 0x00, 0x00, 0x9e, 0xfa, 0xff, 0xff, 0x1c, 0x00, 0x00, 0x00,
  0x00, 0x00, 0x00, 0x09, 0x1c, 0x00, 0x00, 0x00, 0x20, 0x00, 0x00, 0x00,
  0x08, 0x00, 0x00, 0x00, 0x00, 0x00, 0x06, 0x00, 0x08, 0x00, 0x04, 0x00,
  0x06, 0x00, 0x00, 0x00, 0x00, 0x00, 0x80, 0x3f, 0x01, 0x00, 0x00, 0x00,
  0x3f, 0x00, 0x00, 0x00, 0x01, 0x00, 0x00, 0x00, 0x3e, 0x00, 0x00, 0x00,
  0xd6, 0xfa, 0xff, 0xff, 0x14, 0x00, 0x00, 0x00, 0x00, 0x00, 0x00, 0x08,
  0x10, 0x00, 0x00, 0x00, 0x14, 0x00, 0x00, 0x00, 0x06, 0x00, 0x00, 0x00,
  0x38, 0xbb, 0xff, 0xff, 0x01, 0x00, 0x00, 0x00, 0x3e, 0x00, 0x00, 0x00,
  0x03, 0x00, 0x00, 0x00, 0x3b, 0x00, 0x00, 0x00, 0x0b, 0x00, 0x00, 0x00,
  0x0a, 0x00, 0x00, 0x00, 0xaa, 0xfa, 0xff, 0xff, 0x0c, 0x00, 0x00, 0x00,
  0x10, 0x00, 0x00, 0x00, 0x07, 0x00, 0x00, 0x00, 0x01, 0x00, 0x00, 0x00,
  0x3d, 0x00, 0x00, 0x00, 0x01, 0x00, 0x00, 0x00, 0x3c, 0x00, 0x00, 0x00,
  0x2a, 0xfb, 0xff, 0xff, 0x14, 0x00, 0x00, 0x00, 0x00, 0x00, 0x00, 0x08,
  0x10, 0x00, 0x00, 0x00, 0x14, 0x00, 0x00, 0x00, 0x06, 0x00, 0x00, 0x00,
  0x8c, 0xbb, 0xff, 0xff, 0x01, 0x00, 0x00, 0x00, 0x3c, 0x00, 0x00, 0x00,
  0x03, 0x00, 0x00, 0x00, 0x3b, 0x00, 0x00, 0x00, 0x0d, 0x00, 0x00, 0x00,
  0x0c, 0x00, 0x00, 0x00, 0xfe, 0xfa, 0xff, 0xff, 0x0c, 0x00, 0x00, 0x00,
  0x10, 0x00, 0x00, 0x00, 0x05, 0x00, 0x00, 0x00, 0x01, 0x00, 0x00, 0x00,
  0x3b, 0x00, 0x00, 0x00, 0x02, 0x00, 0x00, 0x00, 0x3a, 0x00, 0x00, 0x00,
  0x09, 0x00, 0x00, 0x00, 0x82, 0xfb, 0xff, 0xff, 0x14, 0x00, 0x00, 0x00,
  0x00, 0x00, 0x00, 0x01, 0x20, 0x00, 0x00, 0x00, 0x24, 0x00, 0x00, 0x00,
  0x04, 0x00, 0x00, 0x00, 0xfc, 0xfb, 0xff, 0xff, 0x00, 0x00, 0x00, 0x01,
  0x01, 0x00, 0x00, 0x00, 0x01, 0x00, 0x00, 0x00, 0x00, 0x00, 0x00, 0x01,
  0x01, 0x00, 0x00, 0x00, 0x3a, 0x00, 0x00, 0x00, 0x03, 0x00, 0x00, 0x00,
  0x39, 0x00, 0x00, 0x00, 0x0f, 0x00, 0x00, 0x00, 0x0e, 0x00, 0x00, 0x00,
  0xc6, 0xfb, 0xff, 0xff, 0x14, 0x00, 0x00, 0x00, 0x00, 0x00, 0x00, 0x02,
  0x1c, 0x00, 0x00, 0x00, 0x20, 0x00, 0x00, 0x00, 0x02, 0x00, 0x00, 0x00,
  0x2c, 0xff, 0xff, 0xff, 0x01, 0x00, 0x00, 0x00, 0x01, 0x00, 0x00, 0x00,
  0x01, 0x00, 0x00, 0x00, 0x01, 0x00, 0x00, 0x00, 0x39, 0x00, 0x00, 0x00,
  0x03, 0x00, 0x00, 0x00, 0x38, 0x00, 0x00, 0x00, 0x10, 0x00, 0x00, 0x00,
  0x14, 0x00, 0x00, 0x00, 0x72, 0xfb, 0xff, 0xff, 0x10, 0x00, 0x00, 0x00,
  0x00, 0x00, 0x00, 0x34, 0x0c, 0x00, 0x00, 0x00, 0x10, 0x00, 0x00, 0x00,
  0x64, 0xbc, 0xff, 0xff, 0x01, 0x00, 0x00, 0x00, 0x38, 0x00, 0x00, 0x00,
  0x02, 0x00, 0x00, 0x00, 0x37, 0x00, 0x00, 0x00, 0x01, 0x00, 0x00, 0x00,
  0xd2, 0xfb, 0xff, 0xff, 0x0c, 0x00, 0x00, 0x00, 0x10, 0x00, 0x00, 0x00,
  0x05, 0x00, 0x00, 0x00, 0x01, 0x00, 0x00, 0x00, 0x37, 0x00, 0x00, 0x00,
  0x02, 0x00, 0x00, 0x00, 0x36, 0x00, 0x00, 0x00, 0x08, 0x00, 0x00, 0x00,
  0x56, 0xfc, 0xff, 0xff, 0x14, 0x00, 0x00, 0x00, 0x00, 0x00, 0x00, 0x01,
  0x20, 0x00, 0x00, 0x00, 0x24, 0x00, 0x00, 0x00, 0x04, 0x00, 0x00, 0x00,
  0xd0, 0xfc, 0xff, 0xff, 0x00, 0x00, 0x00, 0x01, 0x01, 0x00, 0x00, 0x00,
  0x01, 0x00, 0x00, 0x00, 0x00, 0x00, 0x00, 0x01, 0x01, 0x00, 0x00, 0x00,
  0x36, 0x00, 0x00, 0x00, 0x03, 0x00, 0x00, 0x00, 0x35, 0x00, 0x00, 0x00,
  0x12, 0x00, 0x00, 0x00, 0x11, 0x00, 0x00, 0x00, 0x9a, 0xfc, 0xff, 0xff,
  0x20, 0x00, 0x00, 0x00, 0x00, 0x00, 0x00, 0x02, 0x28, 0x00, 0x00, 0x00,
  0x2c, 0x00, 0x00, 0x00, 0x02, 0x00, 0x00, 0x00, 0x0c, 0x00, 0x10, 0x00,
  0x00, 0x00, 0x0c, 0x00, 0x08, 0x00, 0x04, 0x00, 0x0c, 0x00, 0x00, 0x00,
  0x01, 0x00, 0x00, 0x00, 0x01, 0x00, 0x00, 0x00, 0x01, 0x00, 0x00, 0x00,
  0x01, 0x00, 0x00, 0x00, 0x35, 0x00, 0x00, 0x00, 0x03, 0x00, 0x00, 0x00,
  0x34, 0x00, 0x00, 0x00, 0x15, 0x00, 0x00, 0x00, 0x13, 0x00, 0x00, 0x00,
  0x52, 0xfc, 0xff, 0xff, 0x10, 0x00, 0x00, 0x00, 0x00, 0x00, 0x00, 0x34,
  0x0c, 0x00, 0x00, 0x00, 0x10, 0x00, 0x00, 0x00, 0x44, 0xbd, 0xff, 0xff,
  0x01, 0x00, 0x00, 0x00, 0x34, 0x00, 0x00, 0x00, 0x02, 0x00, 0x00, 0x00,
  0x33, 0x00, 0x00, 0x00, 0x01, 0x00, 0x00, 0x00, 0xb2, 0xfc, 0xff, 0xff,
  0x0c, 0x00, 0x00, 0x00, 0x10, 0x00, 0x00, 0x00, 0x05, 0x00, 0x00, 0x00,
  0x01, 0x00, 0x00, 0x00, 0x33, 0x00, 0x00, 0x00, 0x02, 0x00, 0x00, 0x00,
  0x32, 0x00, 0x00, 0x00, 0x08, 0x00, 0x00, 0x00, 0x36, 0xfd, 0xff, 0xff,
  0x14, 0x00, 0x00, 0x00, 0x00, 0x00, 0x00, 0x01, 0x20, 0x00, 0x00, 0x00,
  0x24, 0x00, 0x00, 0x00, 0x04, 0x00, 0x00, 0x00, 0xb0, 0xfd, 0xff, 0xff,
  0x00, 0x00, 0x00, 0x01, 0x01, 0x00, 0x00, 0x00, 0x01, 0x00, 0x00, 0x00,
  0x00, 0x00, 0x00, 0x01, 0x01, 0x00, 0x00, 0x00, 0x32, 0x00, 0x00, 0x00,
  0x03, 0x00, 0x00, 0x00, 0x31, 0x00, 0x00, 0x00, 0x17, 0x00, 0x00, 0x00,
  0x16, 0x00, 0x00, 0x00, 0x1a, 0xfd, 0xff, 0xff, 0x0c, 0x00, 0x00, 0x00,
  0x10, 0x00, 0x00, 0x00, 0x03, 0x00, 0x00, 0x00, 0x01, 0x00, 0x00, 0x00,
  0x31, 0x00, 0x00, 0x00, 0x03, 0x00, 0x00, 0x00, 0x30, 0x00, 0x00, 0x00,
  0x02, 0x00, 0x00, 0x00, 0x04, 0x00, 0x00, 0x00, 0xa2, 0xfd, 0xff, 0xff,
  0x14, 0x00, 0x00, 0x00, 0x00, 0x00, 0x00, 0x02, 0x20, 0x00, 0x00, 0x00,
  0x24, 0x00, 0x00, 0x00, 0x02, 0x00, 0x00, 0x00, 0x94, 0xfd, 0xff, 0xff,
  0x01, 0x00, 0x00, 0x00, 0x01, 0x00, 0x00, 0x00, 0x01, 0x00, 0x00, 0x00,
  0x00, 0x00, 0x00, 0x01, 0x01, 0x00, 0x00, 0x00, 0x30, 0x00, 0x00, 0x00,
  0x03, 0x00, 0x00, 0x00, 0x2f, 0x00, 0x00, 0x00, 0x19, 0x00, 0x00, 0x00,
  0x18, 0x00, 0x00, 0x00, 0x86, 0xfd, 0xff, 0xff, 0x0c, 0x00, 0x00, 0x00,
  0x10, 0x00, 0x00, 0x00, 0x01, 0x00, 0x00, 0x00, 0x01, 0x00, 0x00, 0x00,
  0x2f, 0x00, 0x00, 0x00, 0x03, 0x00, 0x00, 0x00, 0x2e, 0x00, 0x00, 0x00,
  0x02, 0x00, 0x00, 0x00, 0x06, 0x00, 0x00, 0x00, 0x7a, 0xfd, 0xff, 0xff,
  0x10, 0x00, 0x00, 0x00, 0x00, 0x00, 0x00, 0x34, 0x0c, 0x00, 0x00, 0x00,
  0x10, 0x00, 0x00, 0x00, 0x6c, 0xbe, 0xff, 0xff, 0x01, 0x00, 0x00, 0x00,
  0x2e, 0x00, 0x00, 0x00, 0x02, 0x00, 0x00, 0x00, 0x2d, 0x00, 0x00, 0x00,
  0x01, 0x00, 0x00, 0x00, 0xda, 0xfd, 0xff, 0xff, 0x0c, 0x00, 0x00, 0x00,
  0x10, 0x00, 0x00, 0x00, 0x05, 0x00, 0x00, 0x00, 0x01, 0x00, 0x00, 0x00,
  0x2d, 0x00, 0x00, 0x00, 0x02, 0x00, 0x00, 0x00, 0x2c, 0x00, 0x00, 0x00,
  0x07, 0x00, 0x00, 0x00, 0x5e, 0xfe, 0xff, 0xff, 0x14, 0x00, 0x00, 0x00,
  0x00, 0x00, 0x00, 0x01, 0x20, 0x00, 0x00, 0x00, 0x24, 0x00, 0x00, 0x00,
  0x04, 0x00, 0x00, 0x00, 0xd8, 0xfe, 0xff, 0xff, 0x00, 0x00, 0x00, 0x01,
  0x01, 0x00, 0x00, 0x00, 0x01, 0x00, 0x00, 0x00, 0x00, 0x00, 0x00, 0x01,
  0x01, 0x00, 0x00, 0x00, 0x2c, 0x00, 0x00, 0x00, 0x03, 0x00, 0x00, 0x00,
  0x2b, 0x00, 0x00, 0x00, 0x1b, 0x00, 0x00, 0x00, 0x1a, 0x00, 0x00, 0x00,
  0x42, 0xfe, 0xff, 0xff, 0x0c, 0x00, 0x00, 0x00, 0x10, 0x00, 0x00, 0x00,
  0x03, 0x00, 0x00, 0x00, 0x01, 0x00, 0x00, 0x00, 0x2b, 0x00, 0x00, 0x00,
  0x03, 0x00, 0x00, 0x00, 0x2a, 0x00, 0x00, 0x00, 0x02, 0x00, 0x00, 0x00,
  0x04, 0x00, 0x00, 0x00, 0xca, 0xfe, 0xff, 0xff, 0x14, 0x00, 0x00, 0x00,
  0x00, 0x00, 0x00, 0x02, 0x20, 0x00, 0x00, 0x00, 0x24, 0x00, 0x00, 0x00,
  0x02, 0x00, 0x00, 0x00, 0xbc, 0xfe, 0xff, 0xff, 0x01, 0x00, 0x00, 0x00,
  0x01, 0x00, 0x00, 0x00, 0x01, 0x00, 0x00, 0x00, 0x00, 0x00, 0x00, 0x01,
  0x01, 0x00, 0x00, 0x00, 0x2a, 0x00, 0x00, 0x00, 0x03, 0x00, 0x00, 0x00,
  0x29, 0x00, 0x00, 0x00, 0x1d, 0x00, 0x00, 0x00, 0x1c, 0x00, 0x00, 0x00,
  0xae, 0xfe, 0xff, 0xff, 0x0c, 0x00, 0x00, 0x00, 0x10, 0x00, 0x00, 0x00,
  0x01, 0x00, 0x00, 0x00, 0x01, 0x00, 0x00, 0x00, 0x29, 0x00, 0x00, 0x00,
  0x03, 0x00, 0x00, 0x00, 0x28, 0x00, 0x00, 0x00, 0x02, 0x00, 0x00, 0x00,
  0x06, 0x00, 0x00, 0x00, 0xa2, 0xfe, 0xff, 0xff, 0x10, 0x00, 0x00, 0x00,
  0x00, 0x00, 0x00, 0x34, 0x0c, 0x00, 0x00, 0x00, 0x10, 0x00, 0x00, 0x00,
  0x94, 0xbf, 0xff, 0xff, 0x01, 0x00, 0x00, 0x00, 0x28, 0x00, 0x00, 0x00,
  0x02, 0x00, 0x00, 0x00, 0x27, 0x00, 0x00, 0x00, 0x01, 0x00, 0x00, 0x00,
  0x02, 0xff, 0xff, 0xff, 0x0c, 0x00, 0x00, 0x00, 0x10, 0x00, 0x00, 0x00,
  0x05, 0x00, 0x00, 0x00, 0x01, 0x00, 0x00, 0x00, 0x27, 0x00, 0x00, 0x00,
  0x02, 0x00, 0x00, 0x00, 0x26, 0x00, 0x00, 0x00, 0x05, 0x00, 0x00, 0x00,
  0x86, 0xff, 0xff, 0xff, 0x20, 0x00, 0x00, 0x00, 0x00, 0x00, 0x00, 0x01,
  0x2c, 0x00, 0x00, 0x00, 0x30, 0x00, 0x00, 0x00, 0x04, 0x00, 0x00, 0x00,
  0x0c, 0x00, 0x14, 0x00, 0x13, 0x00, 0x0c, 0x00, 0x08, 0x00, 0x07, 0x00,
  0x0c, 0x00, 0x00, 0x00, 0x00, 0x00, 0x00, 0x01, 0x01, 0x00, 0x00, 0x00,
  0x01, 0x00, 0x00, 0x00, 0x00, 0x00, 0x00, 0x01, 0x01, 0x00, 0x00, 0x00,
  0x26, 0x00, 0x00, 0x00, 0x03, 0x00, 0x00, 0x00, 0x25, 0x00, 0x00, 0x00,
  0x1f, 0x00, 0x00, 0x00, 0x1e, 0x00, 0x00, 0x00, 0x76, 0xff, 0xff, 0xff,
  0x0c, 0x00, 0x00, 0x00, 0x10, 0x00, 0x00, 0x00, 0x03, 0x00, 0x00, 0x00,
  0x01, 0x00, 0x00, 0x00, 0x25, 0x00, 0x00, 0x00, 0x03, 0x00, 0x00, 0x00,
  0x24, 0x00, 0x00, 0x00, 0x02, 0x00, 0x00, 0x00, 0x04, 0x00, 0x00, 0x00,
  0x00, 0x00, 0x0e, 0x00, 0x18, 0x00, 0x14, 0x00, 0x10, 0x00, 0x0c, 0x00,
  0x0b, 0x00, 0x04, 0x00, 0x0e, 0x00, 0x00, 0x00, 0x20, 0x00, 0x00, 0x00,
  0x00, 0x00, 0x00, 0x02, 0x2c, 0x00, 0x00, 0x00, 0x30, 0x00, 0x00, 0x00,
  0x02, 0x00, 0x00, 0x00, 0x0c, 0x00, 0x14, 0x00, 0x13, 0x00, 0x0c, 0x00,
  0x08, 0x00, 0x04, 0x00, 0x0c, 0x00, 0x00, 0x00, 0x01, 0x00, 0x00, 0x00,
  0x01, 0x00, 0x00, 0x00, 0x01, 0x00, 0x00, 0x00, 0x00, 0x00, 0x00, 0x01,
  0x01, 0x00, 0x00, 0x00, 0x24, 0x00, 0x00, 0x00, 0x03, 0x00, 0x00, 0x00,
  0x23, 0x00, 0x00, 0x00, 0x21, 0x00, 0x00, 0x00, 0x20, 0x00, 0x00, 0x00,
  0x00, 0x00, 0x0a, 0x00, 0x10, 0x00, 0x0c, 0x00, 0x08, 0x00, 0x04, 0x00,
  0x0a, 0x00, 0x00, 0x00, 0x0c, 0x00, 0x00, 0x00, 0x10, 0x00, 0x00, 0x00,
  0x01, 0x00, 0x00, 0x00, 0x01, 0x00, 0x00, 0x00, 0x23, 0x00, 0x00, 0x00,
  0x03, 0x00, 0x00, 0x00, 0x22, 0x00, 0x00, 0x00, 0x02, 0x00, 0x00, 0x00,
  0x03, 0x00, 0x00, 0x00, 0x00, 0x00, 0x0e, 0x00, 0x14, 0x00, 0x00, 0x00,
  0x10, 0x00, 0x0c, 0x00, 0x0b, 0x00, 0x04, 0x00, 0x0e, 0x00, 0x00, 0x00,
  0x10, 0x00, 0x00, 0x00, 0x00, 0x00, 0x00, 0x34, 0x0c, 0x00, 0x00, 0x00,
  0x10, 0x00, 0x00, 0x00, 0x00, 0xc1, 0xff, 0xff, 0x01, 0x00, 0x00, 0x00,
  0x22, 0x00, 0x00, 0x00, 0x02, 0x00, 0x00, 0x00, 0x00, 0x00, 0x00, 0x00,
  0x01, 0x00, 0x00, 0x00, 0x02, 0x00, 0x00, 0x00, 0x3d, 0x00, 0x00, 0x00,
  0x3f, 0x00, 0x00, 0x00, 0x01, 0x00, 0x00, 0x00, 0x00, 0x00, 0x00, 0x00,
  0x40, 0x00, 0x00, 0x00, 0x28, 0x3f, 0x00, 0x00, 0xb0, 0x3e, 0x00, 0x00,
  0x1c, 0x3e, 0x00, 0x00, 0xa0, 0x3d, 0x00, 0x00, 0x24, 0x3d, 0x00, 0x00,
  0xa8, 0x3c, 0x00, 0x00, 0x28, 0x3c, 0x00, 0x00, 0xa8, 0x3b, 0x00, 0x00,
  0x28, 0x3b, 0x00, 0x00, 0xdc, 0x3a, 0x00, 0x00, 0x60, 0x3a, 0x00, 0x00,
  0xf4, 0x39, 0x00, 0x00, 0x78, 0x39, 0x00, 0x00, 0x0c, 0x39, 0x00, 0x00,
  0x90, 0x35, 0x00, 0x00, 0x0c, 0x32, 0x00, 0x00, 0xe8, 0x2f, 0x00, 0x00,
  0xec, 0x2d, 0x00, 0x00, 0xe8, 0x2b, 0x00, 0x00, 0xec, 0x29, 0x00, 0x00,
  0xe8, 0x27, 0x00, 0x00, 0xd8, 0x25, 0x00, 0x00, 0xe0, 0x23, 0x00, 0x00,
  0xdc, 0x21, 0x00, 0x00, 0xa0, 0x20, 0x00, 0x00, 0x50, 0x1f, 0x00, 0x00,
  0x18, 0x1e, 0x00, 0x00, 0xd4, 0x1c, 0x00, 0x00, 0xf8, 0x1b, 0x00, 0x00,
  0x08, 0x1b, 0x00, 0x00, 0x30, 0x1a, 0x00, 0x00, 0x54, 0x19, 0x00, 0x00,
  0xb0, 0x18, 0x00, 0x00, 0x00, 0x18, 0x00, 0x00, 0x60, 0x17, 0x00, 0x00,
  0xac, 0x16, 0x00, 0x00, 0x00, 0x16, 0x00, 0x00, 0x4c, 0x15, 0x00, 0x00,
  0xc8, 0x13, 0x00, 0x00, 0x10, 0x13, 0x00, 0x00, 0x70, 0x12, 0x00, 0x00,
  0xbc, 0x11, 0x00, 0x00, 0x08, 0x11, 0x00, 0x00, 0x54, 0x10, 0x00, 0x00,
  0xc0, 0x0e, 0x00, 0x00, 0x08, 0x0e, 0x00, 0x00, 0x68, 0x0d, 0x00, 0x00,
  0xb4, 0x0c, 0x00, 0x00, 0x00, 0x0c, 0x00, 0x00, 0x4c, 0x0b, 0x00, 0x00,
  0xb8, 0x09, 0x00, 0x00, 0x00, 0x09, 0x00, 0x00, 0x60, 0x08, 0x00, 0x00,
  0xac, 0x07, 0x00, 0x00, 0x18, 0x06, 0x00, 0x00, 0x60, 0x05, 0x00, 0x00,
  0xc0, 0x04, 0x00, 0x00, 0x0c, 0x04, 0x00, 0x00, 0xb8, 0x02, 0x00, 0x00,
  0x34, 0x02, 0x00, 0x00, 0x98, 0x01, 0x00, 0x00, 0x1c, 0x01, 0x00, 0x00,
  0x80, 0x00, 0x00, 0x00, 0x04, 0x00, 0x00, 0x00, 0xee, 0xc1, 0xff, 0xff,
  0x00, 0x00, 0x00, 0x01, 0x18, 0x00, 0x00, 0x00, 0x20, 0x00, 0x00, 0x00,
  0x3c, 0x00, 0x00, 0x00, 0x40, 0x00, 0x00, 0x00, 0x00, 0x00, 0x00, 0x09,
  0x50, 0x00, 0x00, 0x00, 0x02, 0x00, 0x00, 0x00, 0xff, 0xff, 0xff, 0xff,
  0x04, 0x00, 0x00, 0x00, 0xd4, 0xc1, 0xff, 0xff, 0x08, 0x00, 0x00, 0x00,
  0x10, 0x00, 0x00, 0x00, 0x01, 0x00, 0x00, 0x00, 0x80, 0xff, 0xff, 0xff,
  0xff, 0xff, 0xff, 0xff, 0x01, 0x00, 0x00, 0x00, 0x00, 0x00, 0x80, 0x3b,
  0x19, 0x00, 0x00, 0x00, 0x53, 0x74, 0x61, 0x74, 0x65, 0x66, 0x75, 0x6c,
  0x50, 0x61, 0x72, 0x74, 0x69, 0x74, 0x69, 0x6f, 0x6e, 0x65, 0x64, 0x43,
  0x61, 0x6c, 0x6c, 0x3a, 0x31, 0x00, 0x00, 0x00, 0x02, 0x00, 0x00, 0x00,
  0x01, 0x00, 0x00, 0x00, 0x04, 0x00, 0x00, 0x00, 0x66, 0xc2, 0xff, 0xff,
  0x00, 0x00, 0x00, 0x01, 0x18, 0x00, 0x00, 0x00, 0x20, 0x00, 0x00, 0x00,
  0x40, 0x00, 0x00, 0x00, 0x3f, 0x00, 0x00, 0x00, 0x00, 0x00, 0x00, 0x09,
  0x70, 0x00, 0x00, 0x00, 0x02, 0x00, 0x00, 0x00, 0xff, 0xff, 0xff, 0xff,
  0x04, 0x00, 0x00, 0x00, 0x4c, 0xc2, 0xff, 0xff, 0x08, 0x00, 0x00, 0x00,
  0x14, 0x00, 0x00, 0x00, 0x01, 0x00, 0x00, 0x00, 0x3f, 0x00, 0x00, 0x00,
  0x00, 0x00, 0x00, 0x00, 0x00, 0x00, 0x00, 0x00, 0x01, 0x00, 0x00, 0x00,
  0x30, 0x86, 0x42, 0x3f, 0x34, 0x00, 0x00, 0x00, 0x77, 0x65, 0x61, 0x74,
  0x68, 0x65, 0x72, 0x5f, 0x6d, 0x6f, 0x64, 0x65, 0x6c, 0x2f, 0x74, 0x79,
  0x70, 0x65, 0x2f, 0x4d, 0x61, 0x74, 0x4d, 0x75, 0x6c, 0x3b, 0x77, 0x65,
